<unk>	0
<s>	0
</s>	0
<_start_>	0
<_delimiter_>	0
<_classify_>	0
,	-3.21882
▁the	-3.23378
.	-3.35282
s	-3.84674
▁of	-3.85667
▁and	-3.94815
▁to	-3.955
▁a	-4.10695
▁in	-4.27122
'	-4.74594
▁that	-4.87141
▁is	-4.88281
-	-5.00908
▁for	-5.03941
▁was	-5.23859
▁on	-5.24065
▁"	-5.26007
▁it	-5.2805
▁with	-5.28983
▁I	-5.3297
▁The	-5.41149
▁as	-5.44281
▁be	-5.50282
t	-5.55069
▁by	-5.61044
▁are	-5.61912
▁he	-5.63353
▁have	-5.67852
▁at	-5.67891
▁his	-5.71303
▁not	-5.74922
▁you	-5.76988
▁from	-5.7733
▁(	-5.79906
’	-5.85724
:	-5.95633
▁they	-5.95759
▁this	-5.97039
▁	-5.99956
▁or	-6.00064
▁an	-6.00628
"	-6.0153
;	-6.03455
)	-6.0587
▁but	-6.06429
▁has	-6.07548
▁their	-6.13792
▁had	-6.144
ing	-6.19262
▁which	-6.2032
▁will	-6.20977
▁said	-6.22403
▁who	-6.22661
▁all	-6.26068
▁were	-6.2793
▁her	-6.28702
d	-6.29259
ed	-6.32705
▁one	-6.3485
▁we	-6.36785
▁*	-6.40422
▁would	-6.41977
▁more	-6.42441
▁“	-6.44939
▁can	-6.45388
▁been	-6.45677
▁about	-6.49199
▁so	-6.52789
▁she	-6.53927
▁out	-6.55205
?	-6.55593
▁up	-6.57699
▁A	-6.63138
▁when	-6.66063
▁In	-6.67111
▁people	-6.67235
▁them	-6.69157
▁It	-6.73014
e	-6.73482
▁no	-6.73501
▁him	-6.73507
▁than	-6.73793
▁there	-6.74026
▁like	-6.74373
▁if	-6.74951
▁do	-6.7537
▁what	-6.76191
m	-6.76285
▁its	-6.79946
▁He	-6.81414
▁time	-6.81569
▁other	-6.81829
ly	-6.81846
▁also	-6.87705
▁into	-6.87745
▁my	-6.9026
▁over	-6.91022
▁some	-6.91164
▁your	-6.91226
."	-6.9462
▁after	-6.95528
re	-6.9555
▁just	-6.95937
er	-6.97251
▁first	-6.97548
y	-6.99336
▁only	-6.99898
▁me	-7.01626
a	-7.0244
▁two	-7.03077
▁-	-7.03463
S	-7.03718
I	-7.05707
▁our	-7.06546
▁could	-7.09502
!	-7.12979
▁any	-7.14471
▁get	-7.154
▁years	-7.15898
,"	-7.16038
▁now	-7.16873
/	-7.17695
▁most	-7.20122
▁then	-7.23201
▁should	-7.23325
▁But	-7.23753
▁being	-7.28172
▁many	-7.28187
▁year	-7.28896
▁new	-7.29003
▁very	-7.29755
▁because	-7.29913
▁these	-7.30786
▁@	-7.31406
▁'	-7.31493
▁how	-7.31983
▁such	-7.34346
n	-7.34793
▁And	-7.35257
▁where	-7.35525
▁think	-7.35526
▁back	-7.36344
▁much	-7.36676
▁those	-7.37749
▁make	-7.37793
▁This	-7.38001
▁made	-7.38237
▁don	-7.38489
▁before	-7.3887
in	-7.39379
▁well	-7.39708
▁&	-7.40321
▁last	-7.40322
▁know	-7.40597
▁way	-7.40694
▁may	-7.40713
▁even	-7.40944
▁see	-7.41617
▁_	-7.42175
â	-7.42326
th	-7.43713
▁did	-7.46669
▁good	-7.47516
▁us	-7.49351
The	-7.50082
▁down	-7.50283
_	-7.50358
▁work	-7.52218
--	-7.5227
▁man	-7.53746
▁go	-7.54515
,”	-7.56264
▁through	-7.56627
es	-7.57012
▁world	-7.58474
▁If	-7.59523
▁same	-7.59894
▁own	-7.5991
r	-7.59952
...	-7.60188
.”	-7.60668
▁still	-7.60782
”	-7.61119
▁against	-7.61214
▁They	-7.61275
▁day	-7.61683
▁off	-7.61736
▁say	-7.6186
ve	-7.62046
▁while	-7.63505
▁right	-7.64161
i	-7.6457
▁take	-7.64678
o	-7.65268
▁We	-7.65879
▁going	-7.66515
▁long	-7.67008
▁U	-7.67976
ll	-7.68134
▁life	-7.68158
▁under	-7.68517
▁country	-7.69063
▁—	-7.69702
▁between	-7.70631
b	-7.71139
▁never	-7.7127
▁three	-7.71926
▁New	-7.72078
▁want	-7.72554
▁de	-7.72881
▁government	-7.73138
▁She	-7.73322
▁S	-7.73557
al	-7.7379
▁used	-7.7469
▁Mr	-7.75358
▁part	-7.75583
▁–	-7.76459
▁too	-7.77367
▁during	-7.77993
▁little	-7.78766
▁here	-7.8112
A	-7.81543
),	-7.81563
▁need	-7.82226
▁2	-7.82509
▁American	-7.83633
▁come	-7.83857
▁1	-7.841
▁There	-7.84112
▁great	-7.84265
▁You	-7.84437
▁home	-7.8525
▁state	-7.87224
▁every	-7.87418
▁use	-7.87453
▁both	-7.88096
▁another	-7.88233
▁must	-7.88499
▁since	-7.88638
▁As	-7.89185
ers	-7.89612
▁says	-7.93304
or	-7.93422
▁around	-7.93533
▁3	-7.95396
▁left	-7.95564
▁without	-7.95576
ndash	-7.957
▁really	-7.96353
).	-7.96444
▁place	-7.96547
▁end	-7.97038
▁So	-7.97184
▁men	-7.98963
the	-7.99038
▁found	-7.99338
▁That	-7.99475
▁money	-7.99902
▁â	-7.99949
▁does	-8.0015
▁might	-8.00248
▁called	-8.00934
▁For	-8.01071
▁high	-8.01205
▁Trump	-8.01729
▁few	-8.02085
▁again	-8.02409
▁better	-8.02486
▁look	-8.03231
▁old	-8.03483
▁million	-8.04177
",	-8.05111
c	-8.05216
▁told	-8.06022
▁put	-8.06469
▁next	-8.07944
▁got	-8.08173
▁best	-8.08388
▁public	-8.08434
▁re	-8.0849
▁C	-8.08576
▁company	-8.09159
▁each	-8.09578
▁away	-8.09596
▁came	-8.0967
▁4	-8.09751
▁why	-8.11177
▁United	-8.11252
▁far	-8.11684
▁10	-8.12041
2	-8.12103
▁family	-8.12342
man	-8.12838
▁things	-8.12851
k	-8.12902
▁second	-8.12953
on	-8.13125
▁E	-8.13518
▁always	-8.13871
▁number	-8.1427
and	-8.14398
▁something	-8.14637
▁un	-8.15228
▁including	-8.15319
▁show	-8.15626
to	-8.15685
en	-8.16237
C	-8.16456
]	-8.16882
▁5	-8.17319
▁No	-8.17403
▁B	-8.17691
▁game	-8.17852
▁team	-8.17967
▁set	-8.17994
▁help	-8.18222
▁women	-8.18466
g	-8.18771
▁give	-8.19097
▁ever	-8.1963
▁until	-8.19926
▁city	-8.20056
▁When	-8.20058
▁children	-8.20201
▁thing	-8.20364
▁am	-8.20771
▁find	-8.21038
▁point	-8.21305
▁power	-8.21748
▁system	-8.21814
▁though	-8.22035
▁upon	-8.22096
▁thought	-8.2237
an	-8.23442
▁On	-8.24449
▁week	-8.24827
▁four	-8.25382
▁later	-8.25445
▁name	-8.25563
▁won	-8.25796
1	-8.26025
▁less	-8.26397
▁P	-8.26471
▁case	-8.2752
▁went	-8.28035
▁took	-8.28051
▁percent	-8.28396
D	-8.28447
▁having	-8.28451
com	-8.28517
l	-8.28577
▁D	-8.28729
▁known	-8.29181
us	-8.29308
▁days	-8.2931
▁To	-8.29808
▁different	-8.29882
▁O	-8.3064
▁head	-8.30968
".	-8.30978
▁enough	-8.31007
▁[	-8.31553
▁support	-8.31592
▁What	-8.31771
▁M	-8.31885
▁didn	-8.32349
▁lot	-8.3279
▁nothing	-8.33041
▁per	-8.33081
▁At	-8.33405
▁F	-8.33693
▁least	-8.34759
▁war	-8.34879
▁party	-8.34981
▁seen	-8.34998
B	-8.35096
▁done	-8.35116
▁night	-8.35624
We	-8.35863
▁school	-8.36068
▁--	-8.36147
▁business	-8.36176
▁often	-8.36494
▁York	-8.36852
▁himself	-8.36868
▁yet	-8.36869
▁small	-8.36894
▁early	-8.36993
▁law	-8.37261
▁pay	-8.37405
▁water	-8.3745
▁p	-8.3747
▁play	-8.37691
▁season	-8.37843
▁keep	-8.38009
▁group	-8.38329
▁President	-8.38435
▁love	-8.38631
▁US	-8.3885
▁T	-8.38995
?"	-8.39011
▁6	-8.39128
	-8.39396
▁once	-8.39881
▁market	-8.39926
▁given	-8.40023
▁young	-8.4025
▁G	-8.403
▁side	-8.40479
▁fact	-8.40503
▁free	-8.40666
&	-8.40714
▁change	-8.40744
▁States	-8.40936
▁already	-8.40962
▁believe	-8.41554
▁John	-8.41648
▁top	-8.42013
▁big	-8.4202
h	-8.42505
3	-8.42873
▁Obama	-8.42878
ic	-8.42969
▁political	-8.43227
It	-8.43278
▁hand	-8.43337
▁large	-8.43374
p	-8.43375
▁His	-8.43772
▁doesn	-8.4383
T	-8.43974
▁full	-8.44208
▁face	-8.44228
▁become	-8.44362
▁half	-8.44513
▁British	-8.44549
able	-8.44837
▁several	-8.4496
▁EU	-8.45008
▁making	-8.45102
▁real	-8.45953
▁person	-8.46259
year	-8.46946
it	-8.47117
▁house	-8.47372
▁among	-8.47681
▁police	-8.4776
▁UK	-8.48461
▁let	-8.48599
▁death	-8.48702
▁live	-8.48937
▁woman	-8.49529
▁course	-8.4966
4	-8.49947
▁five	-8.50048
▁20	-8.50084
▁R	-8.50638
▁One	-8.51473
is	-8.51476
▁7	-8.5169
▁English	-8.51768
ness	-8.51819
▁vote	-8.52029
	-8.52533
▁run	-8.52734
▁sure	-8.52748
▁past	-8.5318
▁others	-8.53213
▁15	-8.53233
▁hard	-8.53245
P	-8.53272
▁former	-8.53395
▁...	-8.53861
▁K	-8.53914
▁All	-8.54043
▁anything	-8.54197
nbsp	-8.54198
▁rather	-8.54339
▁St	-8.54416
▁became	-8.54934
▁line	-8.54989
E	-8.55434
▁taken	-8.55663
▁God	-8.55736
▁doing	-8.5593
▁order	-8.5594
▁8	-8.56002
▁care	-8.56232
▁able	-8.56234
▁according	-8.57193
u	-8.572
▁story	-8.57331
▁May	-8.57411
▁After	-8.57485
K	-8.57827
	-8.57838
▁|	-8.57857
▁times	-8.58523
▁along	-8.59231
▁start	-8.59278
▁12	-8.601
▁17	-8.60299
▁within	-8.60571
▁America	-8.60837
▁State	-8.60958
▁tell	-8.60993
=	-8.61136
F	-8.61452
▁win	-8.61882
▁working	-8.62062
▁ago	-8.62324
▁whole	-8.62527
▁near	-8.62558
▁news	-8.62567
▁L	-8.62862
▁South	-8.62917
f	-8.62989
▁N	-8.62993
▁form	-8.63054
▁actually	-8.63077
▁months	-8.63129
▁themselves	-8.63452
▁almost	-8.63466
▁feel	-8.63603
▁history	-8.63681
▁important	-8.6381
▁open	-8.63821
▁kind	-8.63865
▁media	-8.63958
▁local	-8.63999
▁car	-8.64009
z	-8.64249
le	-8.64256
▁House	-8.64295
▁president	-8.64479
▁together	-8.64673
▁i	-8.64896
▁French	-8.6502
▁**	-8.65194
▁call	-8.65204
▁general	-8.65534
ity	-8.65537
ism	-8.65539
▁getting	-8.65581
▁whether	-8.6577
▁include	-8.65864
N	-8.66223
▁16	-8.66497
▁W	-8.66558
old	-8.66561
▁deal	-8.66605
▁saying	-8.66697
M	-8.66697
▁report	-8.66701
▁countries	-8.66865
ton	-8.66896
▁asked	-8.6721
▁means	-8.67287
▁members	-8.67362
▁job	-8.67446
▁tax	-8.67449
ist	-8.67463
▁read	-8.67696
▁human	-8.67849
▁either	-8.67878
▁saw	-8.68019
▁H	-8.68063
▁short	-8.68208
▁someone	-8.68245
▁across	-8.68677
x	-8.68719
▁major	-8.68899
▁lost	-8.69086
▁white	-8.69159
▁area	-8.6939
▁North	-8.6958
▁following	-8.69649
▁however	-8.6968
ry	-8.70383
▁National	-8.70518
▁An	-8.70533
▁Europe	-8.70637
▁9	-8.7075
▁matter	-8.70802
▁using	-8.70832
▁began	-8.70857
▁City	-8.70936
▁England	-8.70958
▁By	-8.71014
▁low	-8.71062
▁due	-8.7119
▁leave	-8.71465
▁held	-8.71525
▁service	-8.71755
▁J	-8.71836
▁problem	-8.7233
G	-8.72624
▁looking	-8.72757
de	-8.72905
▁father	-8.731
▁World	-8.73196
—	-8.73225
▁non	-8.73488
▁close	-8.73501
▁example	-8.7373
▁mother	-8.73751
▁trying	-8.73902
!"	-8.7391
▁health	-8.73993
▁mind	-8.74262
▁hope	-8.74275
▁late	-8.74291
ation	-8.74579
▁reason	-8.74622
▁child	-8.74624
▁11	-8.74632
as	-8.74885
▁possible	-8.75521
▁probably	-8.75554
▁black	-8.75563
▁control	-8.75661
▁today	-8.76065
▁information	-8.76093
▁With	-8.76102
▁social	-8.76121
▁University	-8.76307
▁military	-8.76523
▁age	-8.76551
▁air	-8.76658
▁However	-8.76804
▁body	-8.76813
▁China	-8.76891
▁rest	-8.77
▁third	-8.77157
▁six	-8.77332
▁future	-8.776
▁light	-8.77751
▁book	-8.78095
▁single	-8.78103
▁London	-8.78293
▁taking	-8.78403
▁son	-8.78771
▁stop	-8.78895
▁mean	-8.78899
▁behind	-8.78924
▁heart	-8.79044
st	-8.79118
▁national	-8.79373
▁film	-8.7943
▁March	-8.79435
est	-8.7961
▁true	-8.79735
–	-8.79773
▁based	-8.798
▁West	-8.80003
▁month	-8.8032
▁These	-8.804
▁cannot	-8.80748
▁gave	-8.80913
5	-8.80962
▁seems	-8.81089
▁soon	-8.81091
▁idea	-8.8172
▁bad	-8.81817
▁War	-8.81913
▁likely	-8.81917
▁quite	-8.82094
▁question	-8.82127
▁My	-8.82359
▁food	-8.82629
▁post	-8.8282
▁bit	-8.82847
▁whose	-8.8309
▁common	-8.83093
▁coming	-8.83139
▁co	-8.83165
▁series	-8.83167
▁campaign	-8.83194
▁office	-8.83543
co	-8.83544
▁election	-8.8367
ia	-8.83716
▁billion	-8.8379
▁Some	-8.83828
H	-8.84048
▁France	-8.84096
▁word	-8.84149
▁How	-8.84164
▁land	-8.84254
▁court	-8.84334
R	-8.84467
▁added	-8.84603
▁above	-8.85022
▁try	-8.85076
▁period	-8.85318
▁makes	-8.8541
_,	-8.85474
w	-8.85577
▁century	-8.85654
▁led	-8.85683
el	-8.85928
▁move	-8.8618
▁position	-8.86198
▁shall	-8.864
▁January	-8.86478
▁German	-8.86752
▁fire	-8.86824
▁companies	-8.86967
W	-8.87059
▁further	-8.87428
▁poor	-8.87531
▁started	-8.87887
na	-8.87991
▁words	-8.88142
▁else	-8.88382
ne	-8.88416
L	-8.88599
▁result	-8.88697
▁room	-8.88978
ar	-8.89289
▁isn	-8.89347
▁clear	-8.89428
up	-8.89575
▁living	-8.89631
▁30	-8.89651
▁wrong	-8.89989
▁anyone	-8.90048
▁Friday	-8.90241
▁De	-8.90328
te	-8.90381
....	-8.90621
▁article	-8.90635
ian	-8.90708
ment	-8.91018
▁wife	-8.91118
▁interest	-8.91524
▁points	-8.91769
▁brought	-8.92103
▁moment	-8.92162
▁comes	-8.92205
▁data	-8.92274
▁June	-8.92375
▁plan	-8.92417
▁lead	-8.92498
less	-8.92556
▁Washington	-8.9262
▁return	-8.92719
▁front	-8.92867
▁certain	-8.92887
O	-8.93011
▁turn	-8.93103
no	-8.93151
▁eyes	-8.93577
▁sent	-8.93686
▁V	-8.93689
▁present	-8.93967
▁morning	-8.9405
▁outside	-8.94109
▁European	-8.94186
▁July	-8.94202
▁level	-8.94374
▁issue	-8.94376
▁understand	-8.94475
▁Monday	-8.94571
▁King	-8.9463
▁population	-8.94917
▁needs	-8.95032
▁especially	-8.95312
▁current	-8.95318
▁strong	-8.95453
▁heard	-8.95459
▁November	-8.95512
▁players	-8.95597
▁self	-8.95696
ie	-8.95839
▁Now	-8.95889
▁process	-8.95901
▁sense	-8.96014
v	-8.96042
▁recent	-8.96113
▁e	-8.9619
▁everything	-8.96434
▁Then	-8.96452
▁policy	-8.96554
▁economic	-8.96667
▁18	-8.96768
V	-8.96779
▁class	-8.96816
il	-8.97151
▁price	-8.97322
▁wanted	-8.97413
▁April	-8.97584
▁14	-8.9759
▁THE	-8.98121
▁cost	-8.98163
▁Sunday	-8.98171
son	-8.98229
▁friends	-8.98314
▁force	-8.98525
▁hours	-8.98668
▁Re	-8.98668
▁cut	-8.99137
▁music	-8.99156
▁wrote	-8.9917
▁itself	-8.99233
▁knew	-8.99371
▁13	-8.99542
▁player	-8.99724
▁December	-8.99904
|	-8.99915
▁turned	-8.99991
▁Wednesday	-9.00054
▁While	-9.00194
▁rate	-9.00647
▁Do	-9.01007
▁final	-9.01055
▁Clinton	-9.01273
▁Tuesday	-9.01375
▁Why	-9.01581
▁expected	-9.01758
▁died	-9.01763
at	-9.01854
▁September	-9.01855
▁video	-9.01882
▁San	-9.01901
▁received	-9.02229
▁economy	-9.02286
▁trade	-9.02349
▁private	-9.02402
▁cause	-9.02482
▁instead	-9.02489
▁‘	-9.02824
▁record	-9.02831
▁looked	-9.03013
rs	-9.03041
▁Al	-9.03066
▁games	-9.03111
Y	-9.03291
▁August	-9.03314
▁industry	-9.03322
._	-9.03329
land	-9.03381
▁building	-9.03439
▁share	-9.03467
ling	-9.03507
▁seem	-9.03757
▁states	-9.03873
▁October	-9.03969
▁hit	-9.04029
▁bring	-9.04117
▁everyone	-9.04127
▁experience	-9.04287
▁view	-9.04426
▁town	-9.04622
▁reported	-9.04824
▁ground	-9.05087
▁longer	-9.05103
▁Thursday	-9.05143
▁community	-9.05309
▁continue	-9.05462
6	-9.05503
▁Labour	-9.05563
▁paid	-9.05577
▁whom	-9.05843
▁played	-9.05963
▁higher	-9.05983
▁Co	-9.05984
▁la	-9.06031
▁killed	-9.06225
▁hands	-9.06322
▁main	-9.06513
▁oil	-9.06568
▁rights	-9.06584
▁term	-9.06759
▁nearly	-9.06855
ley	-9.06855
▁statement	-9.07049
▁Not	-9.07074
▁research	-9.07101
▁forward	-9.07544
▁total	-9.07668
▁space	-9.07719
▁February	-9.07749
You	-9.07812
▁role	-9.07865
ra	-9.07889
▁decision	-9.07994
am	-9.08109
me	-9.08123
▁La	-9.08175
▁round	-9.08208
▁similar	-9.08934
J	-9.08948
▁evidence	-9.08997
▁#	-9.09028
▁chance	-9.09091
▁services	-9.0912
▁comment	-9.09196
▁Russia	-9.09287
▁growth	-9.09297
▁pre	-9.09328
age	-9.09364
▁Her	-9.09407
▁Britain	-9.09442
▁Dr	-9.09753
▁field	-9.09762
et	-9.09971
▁d	-9.1012
▁friend	-9.1016
▁looks	-9.10168
▁action	-9.10496
▁allowed	-9.10521
▁special	-9.10573
▁security	-9.1058
▁race	-9.10621
▁attack	-9.10783
▁etc	-9.10822
▁Republican	-9.1083
▁red	-9.10831
9	-9.10898
▁White	-9.10955
▁talk	-9.11012
▁Germany	-9.11114
ty	-9.11246
▁average	-9.11279
um	-9.11532
▁anti	-9.12503
▁running	-9.12655
▁published	-9.12792
▁program	-9.12961
▁lives	-9.13253
men	-9.13309
▁officials	-9.13352
▁released	-9.13441
▁leader	-9.13622
▁hold	-9.13698
▁buy	-9.13911
▁students	-9.1397
one	-9.14055
▁:	-9.14096
▁available	-9.14202
▁development	-9.14259
▁value	-9.14326
ary	-9.1438
▁Man	-9.14435
▁allow	-9.14532
▁nation	-9.14601
▁East	-9.1462
▁en	-9.14767
▁study	-9.14886
▁financial	-9.14906
▁parents	-9.15028
▁felt	-9.15416
▁25	-9.15736
▁sea	-9.15762
ta	-9.15794
▁language	-9.16003
▁c	-9.16122
▁modern	-9.16234
▁popular	-9.16269
▁pretty	-9.16614
▁although	-9.16687
▁George	-9.16761
▁considered	-9.16993
ch	-9.17083
▁David	-9.17119
▁member	-9.17154
▁stay	-9.17155
▁simply	-9.17192
▁provide	-9.17196
be	-9.1726
(	-9.17364
8	-9.17713
▁hear	-9.17729
0	-9.17812
He	-9.17849
▁weeks	-9.17896
▁girl	-9.18035
▁gone	-9.18046
▁Saturday	-9.18119
▁personal	-9.182
▁19	-9.18313
▁increase	-9.18427
ion	-9.18642
▁road	-9.18704
▁James	-9.18713
7	-9.18751
▁issues	-9.18781
▁various	-9.18815
▁alone	-9.18838
ur	-9.18932
▁event	-9.19039
▁pro	-9.19145
▁character	-9.19151
▁shows	-9.19164
▁Or	-9.19183
▁County	-9.19433
he	-9.19561
▁stock	-9.19564
▁stand	-9.19689
ad	-9.1976
▁kids	-9.19862
ive	-9.19956
▁effect	-9.19994
▁written	-9.20018
▁dead	-9.20049
▁shot	-9.20332
▁act	-9.2038
▁sometimes	-9.20404
▁seemed	-9.20518
▁fall	-9.2067
▁foreign	-9.2077
▁minutes	-9.20835
▁Paul	-9.2106
▁majority	-9.21072
▁career	-9.21141
▁Street	-9.212
▁international	-9.21282
▁list	-9.21343
time	-9.21411
un	-9.21452
id	-9.21492
▁lower	-9.21546
▁Of	-9.21596
day	-9.21705
ma	-9.21946
▁original	-9.22002
▁built	-9.22307
▁50	-9.22424
▁perhaps	-9.2246
▁quarter	-9.22468
▁India	-9.22542
▁earlier	-9.22615
▁wasn	-9.22759
▁works	-9.22907
▁comments	-9.22936
▁fight	-9.22952
In	-9.23006
▁watch	-9.23115
do	-9.23173
ir	-9.23273
▁chief	-9.23384
▁Party	-9.23388
▁energy	-9.23625
U	-9.23806
▁happy	-9.23955
▁happened	-9.24066
▁federal	-9.24084
▁official	-9.24169
▁playing	-9.24211
▁couple	-9.24354
ter	-9.244
▁ask	-9.24489
▁director	-9.2452
▁worked	-9.24745
▁account	-9.24769
▁risk	-9.24823
▁passed	-9.24925
▁natural	-9.25133
▁education	-9.25265
ate	-9.25295
▁usually	-9.25305
▁announced	-9.25346
▁s	-9.25466
▁terms	-9.25555
▁wants	-9.25563
▁wouldn	-9.25683
▁daughter	-9.25786
▁Court	-9.25862
▁door	-9.25885
▁production	-9.2612
▁Don	-9.26198
▁100	-9.26399
▁goes	-9.26598
▁created	-9.26902
▁Congress	-9.27022
▁California	-9.27052
▁Chinese	-9.2707
▁followed	-9.2708
▁General	-9.2709
▁subject	-9.27136
▁region	-9.27185
▁problems	-9.27196
▁meeting	-9.27296
▁capital	-9.27319
▁voice	-9.27335
▁II	-9.27387
▁legal	-9.27391
▁Minister	-9.27493
▁letter	-9.27654
▁nature	-9.27775
▁groups	-9.27801
▁recently	-9.27828
▁art	-9.27879
▁News	-9.28031
▁continued	-9.28167
▁sort	-9.28359
▁nor	-9.28415
▁attention	-9.28547
j	-9.28684
ous	-9.28703
X	-9.28973
▁Hillary	-9.29028
▁TV	-9.29049
▁Just	-9.29064
of	-9.29205
▁remember	-9.29329
▁areas	-9.2941
▁Russian	-9.29499
▁below	-9.29507
▁seven	-9.29512
▁needed	-9.29557
▁met	-9.29588
▁("	-9.29744
▁truth	-9.29816
by	-9.29928
▁remain	-9.29931
▁global	-9.30013
▁football	-9.30209
▁From	-9.30361
▁According	-9.30567
▁situation	-9.30634
▁feet	-9.30675
▁spent	-9.3072
▁husband	-9.31419
▁amount	-9.31577
nd	-9.31581
led	-9.31584
▁worth	-9.31671
▁tried	-9.31712
▁Union	-9.31719
▁forces	-9.31903
▁offer	-9.31976
▁2017	-9.32
▁middle	-9.32039
ized	-9.32296
▁board	-9.32305
▁Well	-9.32483
▁Even	-9.32867
▁cases	-9.32938
▁happen	-9.32969
▁giving	-9.33035
▁answer	-9.33044
▁thus	-9.3305
▁society	-9.33185
▁fell	-9.33247
▁version	-9.33261
▁0	-9.33291
ish	-9.33293
all	-9.33366
ies	-9.33402
▁difficult	-9.33527
▁staff	-9.33549
▁largest	-9.33623
▁leaders	-9.33631
line	-9.33681
▁jobs	-9.33754
▁club	-9.33757
▁2016	-9.33854
▁More	-9.33889
▁type	-9.3422
▁named	-9.34249
da	-9.34294
▁involved	-9.34358
▁doubt	-9.34421
ine	-9.34481
▁dis	-9.34539
▁Most	-9.34744
▁results	-9.3486
	-9.35048
▁LETTER	-9.35105
▁21	-9.35172
▁key	-9.35448
▁Park	-9.35487
we	-9.35767
▁born	-9.35798
▁moved	-9.35887
▁site	-9.3589
▁sign	-9.36028
▁People	-9.36081
▁meet	-9.36167
▁included	-9.36176
out	-9.36269
▁kept	-9.36298
▁speak	-9.36304
▁author	-9.36509
la	-9.36556
▁model	-9.36961
▁Lord	-9.36998
▁Department	-9.37196
se	-9.3726
▁First	-9.37284
GREEK	-9.37402
▁certainly	-9.37468
▁particular	-9.37475
▁expect	-9.37508
▁fans	-9.37514
▁towards	-9.37531
▁project	-9.37611
▁appeared	-9.37717
▁eight	-9.37732
▁loss	-9.37801
▁fine	-9.37862
▁agree	-9.37867
▁visit	-9.37916
▁pass	-9.38021
▁follow	-9.38138
▁sound	-9.38197
▁boy	-9.38328
ful	-9.3846
ating	-9.38499
▁24	-9.38591
▁break	-9.38693
▁summer	-9.38756
▁star	-9.38919
▁leading	-9.39052
▁Canada	-9.39053
ro	-9.39193
▁Le	-9.39336
▁bank	-9.39392
▁plans	-9.3961
▁SMALL	-9.39693
")	-9.39742
▁hour	-9.39816
▁events	-9.39919
▁workers	-9.40003
▁beyond	-9.40201
▁success	-9.4022
ner	-9.40286
▁easy	-9.40302
▁performance	-9.4035
▁Americans	-9.40391
go	-9.40403
▁property	-9.40605
▁et	-9.40671
▁International	-9.40716
den	-9.40781
▁Many	-9.40792
▁William	-9.41046
for	-9.4114
▁access	-9.41185
▁myself	-9.41214
▁source	-9.41376
▁fear	-9.4147
▁Church	-9.41528
▁herself	-9.41638
▁Day	-9.41866
▁School	-9.41999
▁Michael	-9.42064
▁40	-9.42229
▁Government	-9.42419
▁blood	-9.42479
▁gun	-9.42495
▁charge	-9.42721
▁create	-9.42753
ant	-9.4276
▁wish	-9.42955
os	-9.42966
▁Police	-9.43025
▁huge	-9.43116
▁simple	-9.43122
▁entire	-9.43159
▁brother	-9.4323
▁takes	-9.43261
▁numbers	-9.43341
▁complete	-9.43376
▁talking	-9.43377
▁movement	-9.43432
▁press	-9.43461
▁ready	-9.43494
▁l	-9.43671
▁individual	-9.4369
▁thinking	-9.43712
▁therefore	-9.43819
▁date	-9.43826
▁Sir	-9.43944
▁decided	-9.43979
▁technology	-9.44051
▁During	-9.44105
▁step	-9.44257
▁paper	-9.44313
▁bill	-9.44317
▁Christian	-9.44411
▁sold	-9.4446
▁parts	-9.44475
▁rule	-9.44541
This	-9.44621
per	-9.44719
://	-9.44748
▁range	-9.45075
▁king	-9.45137
▁sales	-9.45208
▁church	-9.4522
▁eye	-9.45241
▁changes	-9.45365
▁online	-9.45392
▁beginning	-9.45422
▁described	-9.45529
▁potential	-9.45568
ted	-9.45637
▁difference	-9.45656
▁showed	-9.45687
▁prices	-9.45921
▁debt	-9.45932
▁o	-9.46056
ting	-9.4606
ler	-9.46089
▁claim	-9.46129
▁laws	-9.46227
Z	-9.46374
▁Center	-9.46464
ca	-9.46533
▁returned	-9.46698
▁administration	-9.46742
▁Can	-9.46753
▁save	-9.46806
mo	-9.46825
▁serious	-9.4691
▁reached	-9.46928
▁fair	-9.46935
▁changed	-9.46942
▁respect	-9.47056
▁leaving	-9.47116
▁religious	-9.47118
▁schools	-9.47154
▁title	-9.47197
▁rules	-9.47212
▁shares	-9.4731
▁particularly	-9.47339
▁build	-9.47392
▁X	-9.47568
▁pressure	-9.47694
but	-9.47818
▁2018	-9.47842
▁Be	-9.48071
▁culture	-9.48076
▁quickly	-9.4808
▁Here	-9.48186
▁Roman	-9.48347
▁opinion	-9.48417
▁phone	-9.48459
▁necessary	-9.48571
▁voters	-9.48799
▁caused	-9.48837
▁goal	-9.4888
▁products	-9.48944
▁size	-9.48962
	-9.48998
▁release	-9.49126
ally	-9.49137
▁generally	-9.49173
▁Facebook	-9.4919
▁hair	-9.49202
based	-9.49368
▁inside	-9.49384
▁23	-9.49404
▁/	-9.49415
▁stage	-9.49463
▁failed	-9.49494
ke	-9.49553
ce	-9.49638
▁rich	-9.49658
▁ten	-9.4966
▁earth	-9.4988
▁influence	-9.49885
▁Donald	-9.49908
▁addition	-9.49991
▁reports	-9.50005
▁figure	-9.50021
▁Australia	-9.50128
▁Go	-9.50257
▁rise	-9.50358
▁questions	-9.50367
▁required	-9.50401
ent	-9.50446
▁Mrs	-9.50597
é	-9.5066
▁lack	-9.50717
▁Bill	-9.50717
▁medical	-9.50835
▁Paris	-9.51111
▁throughout	-9.51131
▁Red	-9.51244
▁previous	-9.51261
▁families	-9.51415
▁exactly	-9.51418
▁deep	-9.51434
▁appear	-9.51527
▁ball	-9.51542
▁Twitter	-9.5158
▁wonder	-9.51635
▁appears	-9.51681
▁speech	-9.5193
▁income	-9.52106
▁Yes	-9.5223
▁increased	-9.52284
im	-9.52324
ka	-9.52336
▁League	-9.52493
▁test	-9.52537
▁opened	-9.52797
▁Great	-9.52835
▁table	-9.52841
▁Mar	-9.52874
▁central	-9.52904
▁Texas	-9.52926
▁toward	-9.52945
▁choice	-9.53016
▁gas	-9.5303
▁yourself	-9.53054
▁Council	-9.53088
▁remains	-9.5314
▁north	-9.53408
▁biggest	-9.5345
▁coach	-9.53462
▁peace	-9.53608
▁miles	-9.53645
▁produced	-9.53668
▁guy	-9.5368
▁ex	-9.53683
▁gold	-9.53703
▁worse	-9.53709
▁response	-9.53711
AP	-9.5373
▁base	-9.53835
If	-9.53857
▁Mo	-9.5386
▁latest	-9.5392
not	-9.53952
▁sell	-9.53973
▁learn	-9.53986
▁battle	-9.54259
▁couldn	-9.5429
▁cover	-9.54297
▁gets	-9.54355
▁opportunity	-9.5448
▁raised	-9.54523
▁army	-9.5455
▁2010	-9.54654
▁conditions	-9.54657
em	-9.54686
▁1,	-9.54733
▁22	-9.54775
▁OF	-9.54883
19	-9.54921
▁knowledge	-9.54949
▁relationship	-9.55169
▁Indian	-9.55176
▁significant	-9.55292
▁El	-9.55325
▁Robert	-9.55399
▁send	-9.55534
▁Charles	-9.55561
▁effort	-9.55561
▁officers	-9.55611
▁interview	-9.55673
▁style	-9.55697
▁developed	-9.55704
ge	-9.55797
▁2014	-9.55799
▁forced	-9.55938
▁ahead	-9.55964
▁Black	-9.5606
▁manager	-9.56078
▁politics	-9.56106
There	-9.5617
▁le	-9.56233
▁reading	-9.56473
▁officer	-9.56506
▁Africa	-9.5658
▁Let	-9.56687
▁provided	-9.56695
▁immediately	-9.56826
▁science	-9.56918
▁sub	-9.57079
▁candidate	-9.57152
▁growing	-9.57222
▁Y	-9.57223
▁28	-9.57248
off	-9.57293
▁Act	-9.57294
▁parties	-9.57381
▁thousands	-9.57395
▁greater	-9.5741
▁elected	-9.57466
▁Other	-9.57495
▁Brown	-9.57598
▁con	-9.57713
ah	-9.57775
▁al	-9.57824
▁budget	-9.57852
▁maybe	-9.57917
▁books	-9.5806
▁demand	-9.58075
ri	-9.58222
▁practice	-9.58366
18	-9.58406
▁despite	-9.58412
ak	-9.58443
▁married	-9.58564
▁firm	-9.58588
~}{~	-9.58771
	-9.58778
▁established	-9.58813
▁Since	-9.58917
And	-9.58935
▁beautiful	-9.58962
▁photo	-9.59015
▁south	-9.59045
▁mass	-9.59182
▁completely	-9.59192
▁training	-9.59277
▁piece	-9.59278
ha	-9.59291
▁spending	-9.59311
▁costs	-9.59326
What	-9.59394
▁writing	-9.59416
▁stories	-9.59506
ated	-9.5954
▁wide	-9.59542
▁band	-9.59722
if	-9.59777
▁consider	-9.59789
But	-9.59802
▁bar	-9.59827
▁helped	-9.59834
▁clearly	-9.59858
▁attempt	-9.59917
ni	-9.59923
▁Apple	-9.59938
▁Italian	-9.59983
▁material	-9.60036
▁design	-9.6005
▁spend	-9.60097
▁Democratic	-9.60191
▁walk	-9.60314
▁daily	-9.60315
▁blue	-9.6034
▁ship	-9.60341
▁dark	-9.60371
▁lose	-9.60551
▁stood	-9.60555
▁straight	-9.60606
▁center	-9.60615
▁directly	-9.60632
▁27	-9.60655
li	-9.6068
▁write	-9.60758
▁match	-9.60767
▁Senate	-9.60855
▁indeed	-9.60872
▁except	-9.60885
▁reality	-9.60965
con	-9.60998
▁lived	-9.61195
▁26	-9.61273
▁Bank	-9.61291
▁credit	-9.61303
▁systems	-9.61307
▁finally	-9.61325
▁street	-9.61349
▁weight	-9.61453
▁picture	-9.61554
▁wait	-9.61641
▁cold	-9.61656
▁$1	-9.61719
▁teams	-9.61728
▁2015	-9.61734
▁African	-9.61769
▁mid	-9.61827
▁Although	-9.61903
ists	-9.61907
▁safe	-9.61909
▁Israel	-9.61981
▁See	-9.61991
▁reach	-9.62005
▁scene	-9.6217
▁condition	-9.62395
▁Republicans	-9.62397
▁Smith	-9.62785
▁civil	-9.62882
like	-9.62891
▁college	-9.62941
▁drive	-9.63095
▁rose	-9.63097
▁n	-9.63115
▁Mark	-9.6313
▁religion	-9.63273
▁voted	-9.63285
▁places	-9.63368
▁served	-9.63399
▁ways	-9.63402
▁aren	-9.6344
▁Japan	-9.63482
▁highest	-9.63585
▁benefit	-9.63597
▁fast	-9.63727
▁green	-9.63745
▁border	-9.63749
▁currently	-9.63789
▁league	-9.63939
▁presidential	-9.6394
▁shown	-9.63985
▁feeling	-9.64062
▁standard	-9.64085
▁Cameron	-9.64186
▁debate	-9.64219
▁Peter	-9.64246
▁quality	-9.64263
▁carried	-9.64266
▁(19	-9.64306
▁benefits	-9.64316
▁purpose	-9.64379
▁Post	-9.64546
▁senior	-9.64585
▁safety	-9.64626
▁Car	-9.64634
▁Two	-9.64649
▁whatever	-9.64759
▁page	-9.64785
▁hundred	-9.648
▁starting	-9.64853
▁successful	-9.6505
ex	-9.65229
▁via	-9.65252
▁compared	-9.65344
▁Me	-9.65421
▁drug	-9.65421
pe	-9.65521
▁please	-9.65737
▁executive	-9.65857
▁marriage	-9.65876
▁treatment	-9.65882
ul	-9.65905
▁impact	-9.66011
▁believed	-9.66015
No	-9.66103
▁ended	-9.66148
▁evening	-9.66231
▁offered	-9.66302
▁rates	-9.66331
▁Con	-9.66341
▁Bo	-9.66354
▁lines	-9.6637
ard	-9.66537
ga	-9.6661
▁violence	-9.66669
▁Corbyn	-9.66678
rd	-9.66738
▁closed	-9.66753
ron	-9.66818
▁knows	-9.66832
▁Scotland	-9.66838
▁network	-9.67055
▁Times	-9.67123
▁ran	-9.67278
▁ability	-9.67394
▁nice	-9.67491
field	-9.67519
▁species	-9.67554
▁add	-9.67565
▁female	-9.67684
▁travel	-9.67717
that	-9.67737
▁High	-9.67835
▁Another	-9.67847
▁crime	-9.6788
▁Miss	-9.67881
▁+	-9.6792
▁Democrats	-9.68043
▁cities	-9.68177
▁Inc	-9.68193
▁till	-9.68213
ey	-9.68444
▁Thomas	-9.68454
▁Press	-9.68473
▁Western	-9.68582
▁actor	-9.68586
▁address	-9.68609
▁television	-9.68619
▁message	-9.68686
▁girls	-9.68719
▁cash	-9.68749
▁efforts	-9.68769
▁note	-9.68888
▁includes	-9.69007
ial	-9.69059
▁perfect	-9.69131
▁Group	-9.69282
▁hot	-9.69334
▁receive	-9.69374
▁Henry	-9.694
▁citizens	-9.69504
▁eat	-9.69505
▁carry	-9.6951
▁Ben	-9.69518
▁opening	-9.69623
▁remained	-9.69655
▁Jan	-9.69693
▁Air	-9.69825
▁hospital	-9.69857
▁nuclear	-9.69883
▁claims	-9.70039
▁investment	-9.7009
▁text	-9.70122
▁seeing	-9.702
▁sex	-9.70306
▁Our	-9.70327
▁Greek	-9.70337
▁theory	-9.7044
▁winning	-9.7054
▁arms	-9.70599
▁dog	-9.70602
▁island	-9.7061
▁investigation	-9.7061
▁pick	-9.70614
▁protect	-9.70742
▁Hall	-9.7075
▁Tom	-9.70835
▁song	-9.70863
▁abuse	-9.70894
▁Z	-9.70906
▁moving	-9.70932
▁focus	-9.7094
▁placed	-9.70983
bo	-9.70991
ise	-9.71042
▁Also	-9.71072
They	-9.71121
sh	-9.71132
▁victory	-9.7117
way	-9.71242
▁baby	-9.71247
▁product	-9.71359
▁judge	-9.71366
Ã	-9.71403
▁Richard	-9.71412
▁heavy	-9.71467
▁PM	-9.71525
▁approach	-9.71532
▁prevent	-9.71636
▁60	-9.71668
▁double	-9.71675
▁sun	-9.71684
▁River	-9.71714
▁Italy	-9.7173
▁none	-9.71839
ization	-9.71915
▁avoid	-9.71954
▁minister	-9.72003
▁fellow	-9.72035
▁grow	-9.72059
▁2012	-9.72093
▁Los	-9.72135
ham	-9.72139
▁independent	-9.72209
ance	-9.7226
▁agreement	-9.72292
di	-9.72446
▁accept	-9.72471
▁station	-9.72473
▁29	-9.72481
▁Syria	-9.72753
▁additional	-9.72822
▁?	-9.72826
mer	-9.72849
▁signed	-9.72851
▁related	-9.72872
▁annual	-9.72951
▁fourth	-9.73035
▁gives	-9.7307
▁conference	-9.73215
30	-9.73245
▁lay	-9.73346
▁policies	-9.73367
ier	-9.73384
▁Canadian	-9.73419
▁content	-9.7347
▁agreed	-9.73599
▁Spanish	-9.73672
▁meaning	-9.7385
▁meant	-9.7386
That	-9.73882
▁wall	-9.73889
▁easily	-9.73939
▁regular	-9.74079
▁t	-9.74107
▁designed	-9.74107
▁crisis	-9.74191
▁wind	-9.74202
lo	-9.74424
▁direct	-9.74457
▁Because	-9.74568
▁check	-9.74743
▁student	-9.74947
▁Bush	-9.74953
▁climate	-9.74988
▁m	-9.74994
tic	-9.75149
▁movie	-9.7521
20	-9.75306
▁sat	-9.75321
▁fit	-9.75421
don	-9.75431
▁Q	-9.75627
▁spoke	-9.75646
▁Their	-9.75752
▁nine	-9.75772
▁positive	-9.75793
▁trust	-9.7582
▁Ha	-9.76006
▁store	-9.7605
▁track	-9.76085
▁Pro	-9.76158
▁die	-9.76217
▁basis	-9.76239
▁names	-9.76302
▁centre	-9.76302
▁features	-9.76331
▁hate	-9.76389
▁decades	-9.76444
▁troops	-9.76456
▁paying	-9.76505
▁haven	-9.76552
15	-9.76716
▁College	-9.76809
▁equal	-9.7689
▁Who	-9.7691
▁Iran	-9.76999
▁length	-9.77022
true	-9.77023
▁traditional	-9.77169
▁birth	-9.77189
au	-9.77209
▁weekend	-9.77277
▁opposition	-9.77378
▁Google	-9.77399
▁search	-9.77426
▁begin	-9.77447
▁manner	-9.7746
▁stopped	-9.77534
ut	-9.77597
so	-9.77759
▁Iraq	-9.77819
▁authorities	-9.77841
▁train	-9.78015
▁2008	-9.78019
▁v	-9.78076
▁levels	-9.7812
▁responsible	-9.78213
▁Martin	-9.78365
▁serve	-9.78379
▁politician	-9.78474
▁b	-9.78612
ck	-9.78615
▁foot	-9.78642
▁produce	-9.78651
▁taxes	-9.78662
▁attacks	-9.78707
▁showing	-9.78773
▁defense	-9.78826
▁cast	-9.78844
▁millions	-9.78845
▁USA	-9.78878
▁Central	-9.78895
▁spot	-9.78905
▁management	-9.78908
▁freedom	-9.7896
ol	-9.78999
▁eventually	-9.79046
▁unless	-9.79101
10	-9.79109
▁beat	-9.79171
▁cross	-9.79171
▁calling	-9.79205
▁older	-9.79227
▁Australian	-9.79289
▁fighting	-9.79349
▁stuff	-9.79423
▁worst	-9.79437
▁Your	-9.79472
io	-9.79528
▁Japanese	-9.79564
▁Sea	-9.79575
▁Royal	-9.79589
▁mostly	-9.79632
▁Good	-9.79634
▁highly	-9.79637
▁river	-9.79693
▁standing	-9.79718
▁Island	-9.79756
▁banks	-9.7981
▁physical	-9.79845
▁Prime	-9.79881
well	-9.7991
▁TO	-9.79913
▁prison	-9.79957
▁contract	-9.79959
▁fun	-9.79964
▁Korea	-9.79987
▁join	-9.80027
▁Army	-9.80104
▁normal	-9.80115
pa	-9.80264
▁larger	-9.80308
▁f	-9.80405
▁writer	-9.80444
▁limited	-9.80449
lin	-9.80558
▁formed	-9.80776
▁reasons	-9.80835
▁becoming	-9.80937
▁trial	-9.80959
▁animals	-9.81156
▁strength	-9.81202
▁Fox	-9.81246
▁joined	-9.81249
▁Spain	-9.81288
▁direction	-9.81347
▁Ar	-9.8136
ti	-9.81366
▁$	-9.81461
▁interesting	-9.81521
▁powerful	-9.81559
▁camp	-9.81592
ised	-9.81772
▁fully	-9.81804
▁famous	-9.81809
.....	-9.8181
▁Cup	-9.81916
▁Bay	-9.81934
▁supposed	-9.81986
▁details	-9.82084
▁website	-9.82196
▁brain	-9.8235
▁rock	-9.82352
▁floor	-9.82405
▁faith	-9.82466
▁AND	-9.82477
▁Like	-9.82588
▁caught	-9.82608
▁cent	-9.82639
▁Ireland	-9.82694
▁Oh	-9.82699
▁speed	-9.82801
▁Lo	-9.82865
▁sister	-9.82871
my	-9.83169
red	-9.83214
▁2013	-9.83293
▁fan	-9.8336
▁professional	-9.8341
▁extra	-9.83428
ium	-9.83463
ster	-9.83665
▁learned	-9.83827
side	-9.83992
▁calls	-9.84007
▁commercial	-9.84021
▁relations	-9.84186
▁supporters	-9.84193
▁justice	-9.8421
▁Johnson	-9.8421
▁yes	-9.84319
▁weather	-9.84341
▁construction	-9.84378
▁snow	-9.84404
▁cars	-9.84433
▁issued	-9.84443
▁du	-9.84447
▁singer	-9.84454
▁Chicago	-9.84495
▁sight	-9.84507
▁introduced	-9.84515
▁guess	-9.84534
▁Brexit	-9.84639
▁watching	-9.84647
▁spring	-9.84655
▁holding	-9.84661
▁Mexico	-9.84673
▁arrived	-9.84682
▁employees	-9.84714
▁fresh	-9.84803
▁Green	-9.8492
▁voting	-9.85015
▁color	-9.85069
▁Both	-9.8512
+	-9.85194
▁waiting	-9.85204
▁stated	-9.85229
▁2011	-9.85257
▁image	-9.85274
▁Louis	-9.85301
▁proposed	-9.85322
▁organization	-9.8533
ities	-9.85342
▁net	-9.8536
▁Will	-9.85419
▁telling	-9.85437
op	-9.85442
▁Christmas	-9.8545
▁male	-9.85523
▁sexual	-9.85606
▁politicians	-9.85656
▁primary	-9.85702
▁Those	-9.8576
▁Company	-9.85766
▁separate	-9.85806
▁disease	-9.85841
▁Yet	-9.85952
▁liberal	-9.85968
▁Ms	-9.85981
▁host	-9.85985
you	-9.85986
▁bed	-9.86007
▁degree	-9.86022
▁customers	-9.86244
▁Angeles	-9.86245
▁Prince	-9.8625
▁Florida	-9.86341
▁computer	-9.86386
▁display	-9.8643
[	-9.86436
▁sleep	-9.86635
▁mouth	-9.86671
▁trouble	-9.86736
▁sector	-9.86771
▁winter	-9.86796
▁domestic	-9.86839
▁views	-9.8687
▁driving	-9.86917
▁radio	-9.86918
▁album	-9.86972
▁aid	-9.86977
▁les	-9.87008
▁cancer	-9.87063
.]	-9.87098
▁bought	-9.87136
▁blame	-9.87171
▁presence	-9.87236
term	-9.87337
house	-9.87354
▁leadership	-9.87372
▁pain	-9.8738
▁specific	-9.87424
▁sports	-9.87519
▁Christ	-9.87537
▁ice	-9.8755
Q	-9.87684
▁des	-9.87699
▁target	-9.87773
▁shooting	-9.87833
Re	-9.87846
▁latter	-9.87921
▁raise	-9.87971
▁agency	-9.87986
que	-9.88075
her	-9.88076
ship	-9.88107
▁grew	-9.88117
▁Sa	-9.88145
▁west	-9.88164
▁boys	-9.88199
▁sit	-9.88237
ite	-9.88251
▁31	-9.88336
▁spread	-9.88376
ED	-9.88389
▁drop	-9.88451
▁immigration	-9.88491
▁thousand	-9.88624
▁threat	-9.88791
▁damage	-9.88797
▁object	-9.88857
▁argument	-9.88924
17	-9.88942
▁evil	-9.88945
▁arm	-9.88954
▁claimed	-9.88969
wa	-9.89126
▁putting	-9.8924
▁•	-9.89251
ize	-9.89292
ya	-9.8937
ring	-9.894
▁ideas	-9.89416
▁previously	-9.89462
▁criminal	-9.89481
▁contact	-9.89591
▁appearance	-9.89592
ville	-9.89594
▁neither	-9.8963
▁spirit	-9.89645
▁union	-9.89658
▁dollars	-9.89689
▁di	-9.89757
▁sad	-9.89786
▁soul	-9.89844
▁hearing	-9.89957
▁advantage	-9.89974
▁2009	-9.89981
▁seat	-9.89989
▁multiple	-9.89999
▁secret	-9.90004
▁wear	-9.90095
16	-9.90113
▁charges	-9.90133
▁incident	-9.90157
▁!	-9.90197
▁horse	-9.9034
▁authority	-9.90379
▁Republic	-9.9047
▁ill	-9.90495
▁surface	-9.90513
▁operations	-9.90541
les	-9.90545
▁entered	-9.90585
▁killing	-9.90625
▁investors	-9.90637
▁Middle	-9.907
▁discovered	-9.90713
▁distance	-9.90734
▁se	-9.90792
▁lady	-9.90824
▁plus	-9.90905
,000	-9.91028
▁finished	-9.91061
▁sources	-9.91076
car	-9.91159
▁weapons	-9.91196
▁choose	-9.91301
▁entirely	-9.9131
▁Mary	-9.91355
▁status	-9.91375
▁pair	-9.91383
▁east	-9.91422
▁illegal	-9.91542
▁Old	-9.91621
▁Dec	-9.91658
▁bottom	-9.91681
▁actions	-9.91684
▁candidates	-9.91696
▁notice	-9.91771
▁otherwise	-9.9182
▁massive	-9.91848
▁markets	-9.91857
▁Last	-9.92068
▁broke	-9.92173
▁Asia	-9.92184
▁box	-9.92257
▁IN	-9.92285
▁happens	-9.92313
▁master	-9.92324
▁super	-9.92338
▁soldiers	-9.9234
▁runs	-9.92625
▁murder	-9.92627
kin	-9.92643
▁ones	-9.92643
▁generation	-9.92675
▁fund	-9.92678
▁ancient	-9.92731
50	-9.92755
▁revenue	-9.92761
▁Jones	-9.92798
▁kill	-9.92936
nt	-9.93003
▁driver	-9.9306
▁DM	-9.93071
ius	-9.93101
▁forms	-9.9315
▁=	-9.93169
▁email	-9.93221
▁housing	-9.93304
▁Ho	-9.93393
▁arrested	-9.93417
▁concerned	-9.93432
▁smaller	-9.93448
▁loved	-9.93455
▁complex	-9.93663
▁competition	-9.93771
▁actual	-9.93822
ence	-9.93827
▁dangerous	-9.93838
▁wild	-9.93876
▁Lu	-9.93937
der	-9.93937
▁forget	-9.94046
ana	-9.9405
ek	-9.94242
▁Bar	-9.94326
▁Sun	-9.94399
▁covered	-9.94492
back	-9.94509
▁intelligence	-9.94619
▁photos	-9.94647
▁flight	-9.94688
▁measure	-9.94691
▁Earth	-9.94694
▁charged	-9.94698
ger	-9.94702
▁elections	-9.94707
▁Se	-9.94752
▁located	-9.94783
ina	-9.949
▁Un	-9.9495
▁ne	-9.94989
▁trip	-9.94999
▁suggested	-9.95
▁afternoon	-9.952
▁dropped	-9.95204
▁dress	-9.9525
▁coast	-9.95251
▁interested	-9.95283
king	-9.95286
end	-9.95295
▁crowd	-9.95366
▁greatest	-9.95478
▁stupid	-9.95601
▁path	-9.95612
▁lies	-9.95722
▁supply	-9.95756
ze	-9.95823
▁sick	-9.95872
▁card	-9.95913
▁g	-9.95916
▁sides	-9.96069
▁Irish	-9.96202
▁becomes	-9.96236
*	-9.96305
ba	-9.96329
▁district	-9.9633
▁largely	-9.9634
po	-9.96347
▁Wall	-9.96396
▁Queen	-9.9646
▁quick	-9.96464
▁insurance	-9.9647
▁est	-9.96478
▁active	-9.96521
▁mention	-9.96841
▁asking	-9.9687
▁Super	-9.96955
▁Big	-9.9698
▁speaking	-9.96999
▁twice	-9.97069
▁declared	-9.97161
▁broken	-9.97161
▁funds	-9.972
▁Mc	-9.97212
▁figures	-9.97213
ology	-9.97232
▁prepared	-9.97234
▁section	-9.97252
!!	-9.97253
▁council	-9.97302
▁window	-9.97363
www	-9.97373
▁residents	-9.97395
▁absolutely	-9.97399
▁accused	-9.97428
▁partner	-9.97468
▁Association	-9.97533
▁effects	-9.97555
▁ye	-9.97607
▁Lake	-9.97609
▁supported	-9.97651
▁businesses	-9.97705
which	-9.97726
▁rain	-9.97777
wood	-9.97872
▁gain	-9.97904
▁users	-9.98024
▁environment	-9.98127
▁skin	-9.98162
▁dear	-9.98168
▁brand	-9.98234
▁Greece	-9.98252
▁Committee	-9.98255
▁Virginia	-9.98281
–19	-9.98291
▁Catholic	-9.98311
▁fish	-9.98427
▁structure	-9.98429
▁Federal	-9.98442
▁resources	-9.98459
▁conversation	-9.98551
▁usual	-9.98679
ny	-9.98688
▁programs	-9.98696
▁Year	-9.98744
va	-9.98815
▁protection	-9.98858
▁improve	-9.9887
tro	-9.98874
▁Hill	-9.98902
▁wearing	-9.98905
▁plant	-9.98907
▁labour	-9.98951
▁Soviet	-9.98952
uk	-9.98965
▁Empire	-9.99021
▁votes	-9.99092
▁Scott	-9.99154
▁impossible	-9.99205
▁storm	-9.99247
My	-9.99284
▁fashion	-9.99343
▁county	-9.99366
▁Jack	-9.99389
24	-9.99408
▁1990	-9.99427
▁sitting	-9.99482
▁Law	-9.99535
▁(18	-9.99555
▁Office	-9.99663
25	-9.99685
▁animal	-9.99692
▁unit	-9.99694
▁proper	-9.9973
top	-9.99758
▁surprise	-9.9977
ja	-9.9982
▁method	-9.99841
▁code	-9.99847
▁mis	-9.99875
▁Di	-9.99886
▁Po	-9.99911
American	-9.99916
▁function	-10
▁possibly	-10.0001
▁imagine	-10.0005
▁heat	-10.0006
▁80	-10.0006
▁35	-10.0011
▁70	-10.0013
▁progress	-10.0023
▁Photo	-10.0028
▁prove	-10.0029
ab	-10.0042
ap	-10.0045
▁activity	-10.0048
▁Joe	-10.0049
▁vehicle	-10.0059
▁Maybe	-10.006
▁houses	-10.0062
▁mentioned	-10.0064
▁department	-10.0066
▁fuel	-10.0066
▁leaves	-10.0069
▁square	-10.0073
▁ensure	-10.0088
▁keeping	-10.0104
▁removed	-10.0113
▁BBC	-10.0113
▁mine	-10.0119
▁minute	-10.0119
▁Lee	-10.0122
▁Per	-10.0122
▁desire	-10.0132
port	-10.0147
▁exist	-10.0148
▁Chief	-10.015
ber	-10.0151
ong	-10.0152
▁III	-10.0153
▁GOP	-10.0154
▁correct	-10.0158
▁afford	-10.0166
ford	-10.0166
born	-10.0167
▁funding	-10.0177
ning	-10.0179
▁1.	-10.0183
▁enjoy	-10.0184
▁victims	-10.0186
▁Road	-10.0187
▁tree	-10.0189
▁que	-10.0195
▁failure	-10.0196
▁boat	-10.0201
gen	-10.0203
▁Best	-10.0208
▁interests	-10.0208
ang	-10.0209
▁reduce	-10.0209
▁actress	-10.0212
▁hurt	-10.0221
▁Only	-10.0223
▁coverage	-10.0227
▁Boston	-10.0229
▁analysis	-10.0238
▁losing	-10.0239
▁instance	-10.0243
▁Health	-10.0244
ud	-10.0246
▁twenty	-10.0252
ney	-10.0253
▁Men	-10.0256
▁enemy	-10.0264
▁guys	-10.0268
▁negative	-10.0268
▁determined	-10.0277
▁Williams	-10.0285
▁continues	-10.0304
▁individuals	-10.031
▁increasing	-10.0311
▁Rome	-10.0315
▁solution	-10.0316
▁Francisco	-10.0318
▁revealed	-10.0324
▁explain	-10.0328
▁hundreds	-10.0333
▁touch	-10.0333
▁File	-10.0336
▁clean	-10.034
▁patients	-10.0352
▁youth	-10.0353
▁Chris	-10.0354
▁posted	-10.0358
29	-10.036
26	-10.036
▁ISIS	-10.0362
▁traffic	-10.0363
▁memory	-10.0367
12	-10.0367
▁streets	-10.0376
izing	-10.0383
▁truly	-10.0394
▁challenge	-10.0396
▁slow	-10.0407
Oh	-10.0409
▁managed	-10.0418
▁reform	-10.0426
ft	-10.0435
▁referendum	-10.0438
▁founded	-10.0439
▁stars	-10.0442
▁Sam	-10.0446
▁Grand	-10.0447
▁CEO	-10.0447
▁Service	-10.0448
▁aircraft	-10.045
▁Under	-10.0452
▁suffered	-10.0452
▁review	-10.0455
▁intended	-10.0455
▁Kingdom	-10.0456
▁nations	-10.0459
▁lie	-10.0459
ative	-10.046
▁grand	-10.0462
▁sale	-10.0465
For	-10.0466
▁sweet	-10.0472
▁profit	-10.0478
▁1980	-10.0484
our	-10.0485
▁village	-10.0486
za	-10.0489
▁require	-10.0494
%	-10.0495
▁collection	-10.0496
▁era	-10.0499
▁adding	-10.0504
@	-10.0512
▁Get	-10.0522
▁owner	-10.0522
▁wealth	-10.0526
▁En	-10.0526
▁feature	-10.0533
▁Turkey	-10.0536
▁shared	-10.0541
▁victim	-10.0542
▁obviously	-10.0542
bar	-10.0544
80	-10.0546
ov	-10.0547
_.	-10.0547
▁Secretary	-10.0552
▁facts	-10.0583
▁northern	-10.0585
▁suggest	-10.0587
ko	-10.0588
▁treated	-10.0594
▁effective	-10.0595
▁Justice	-10.0596
▁History	-10.0606
▁Perhaps	-10.0607
ably	-10.0618
▁Li	-10.0626
▁wing	-10.0635
▁score	-10.0641
more	-10.0644
▁noted	-10.065
28	-10.065
▁decade	-10.0652
▁machine	-10.0652
▁Jewish	-10.0656
▁letters	-10.0658
▁refused	-10.066
á	-10.0662
▁southern	-10.0664
▁numerous	-10.0665
▁hasn	-10.0669
▁concerns	-10.0675
▁listen	-10.0678
▁par	-10.0688
▁prime	-10.0689
▁flat	-10.069
▁homes	-10.069
▁drugs	-10.0695
▁duty	-10.07
▁plenty	-10.0704
▁Read	-10.0712
▁associated	-10.0716
▁bear	-10.0726
▁native	-10.0727
▁Internet	-10.0728
21	-10.0735
ee	-10.0735
▁Am	-10.0743
▁Pre	-10.0744
▁Are	-10.0745
▁conservative	-10.075
▁gay	-10.0754
▁seriously	-10.0754
▁command	-10.0758
room	-10.076
▁answered	-10.0767
over	-10.0771
▁inter	-10.0777
▁draw	-10.0781
▁overall	-10.0783
▁mental	-10.0787
▁governor	-10.0788
ac	-10.0788
▁understanding	-10.0789
▁Kim	-10.0791
▁ban	-10.0796
▁holiday	-10.08
▁$3	-10.08
▁Over	-10.0802
▁app	-10.0802
ible	-10.0808
▁2007	-10.0809
▁responsibility	-10.0813
▁District	-10.082
ino	-10.0821
▁Art	-10.0833
▁Where	-10.0842
▁warm	-10.0843
▁Mac	-10.0852
ns	-10.0853
▁rising	-10.0856
▁http	-10.0857
▁uses	-10.0863
▁records	-10.0863
▁moral	-10.0868
▁suddenly	-10.0869
▁shut	-10.0871
13	-10.0873
Photo	-10.0876
▁goals	-10.088
▁expensive	-10.0881
▁selling	-10.0887
▁block	-10.0894
▁develop	-10.0894
▁suit	-10.0908
▁basic	-10.0912
▁shop	-10.0913
▁ordered	-10.0917
▁sorry	-10.092
▁strange	-10.0934
▁Images	-10.0934
▁democracy	-10.0934
▁artist	-10.0935
▁qui	-10.0937
ow	-10.0939
▁drink	-10.0941
▁western	-10.0942
She	-10.0949
▁critical	-10.095
ez	-10.0956
▁suppose	-10.0959
▁stone	-10.0962
▁hardly	-10.0965
▁aware	-10.0972
▁software	-10.0975
▁multi	-10.0976
▁vast	-10.0988
vo	-10.0991
▁thou	-10.1004
lic	-10.1005
▁conflict	-10.101
▁turning	-10.101
▁NFL	-10.1018
▁Feb	-10.1018
ping	-10.1018
▁Parliament	-10.1021
▁Har	-10.1022
▁doctor	-10.1025
▁yards	-10.1028
▁Life	-10.103
▁apparently	-10.1033
▁Jesus	-10.1033
with	-10.1034
▁labor	-10.1038
▁exchange	-10.1039
▁UN	-10.105
▁matters	-10.1059
▁confirmed	-10.1066
▁BC	-10.107
▁trading	-10.1071
▁committed	-10.1071
mar	-10.1075
▁characters	-10.1085
▁novel	-10.1086
ING	-10.1094
▁injury	-10.1095
▁willing	-10.1101
▁filled	-10.1104
bi	-10.1108
▁Museum	-10.1116
▁expressed	-10.1124
▁launched	-10.1125
▁finding	-10.1135
▁decide	-10.1138
▁dinner	-10.1142
▁Frank	-10.1143
▁enter	-10.1144
▁university	-10.1146
ho	-10.1148
▁extremely	-10.1149
▁1970	-10.1149
sen	-10.1149
▁offers	-10.1153
▁struck	-10.1165
▁audience	-10.1165
▁laid	-10.1169
▁Ko	-10.1177
sa	-10.1181
▁newspaper	-10.1183
min	-10.119
▁types	-10.1191
▁Lady	-10.1191
▁Time	-10.1193
▁missing	-10.1196
▁suspect	-10.1197
▁glad	-10.1199
▁accepted	-10.12
▁Institute	-10.1205
▁committee	-10.1207
▁Long	-10.1219
▁push	-10.1221
▁recorded	-10.1221
▁studies	-10.1226
▁Ca	-10.1227
▁strategy	-10.1228
▁counter	-10.1228
90	-10.123
▁bus	-10.1233
▁mark	-10.1236
▁referred	-10.1236
▁provides	-10.1241
▁park	-10.1243
▁tour	-10.125
▁presented	-10.1254
▁waste	-10.1256
▁lawyer	-10.1263
hi	-10.1264
▁seek	-10.1271
▁Islamic	-10.1273
ig	-10.128
▁tells	-10.1281
▁trees	-10.1287
▁cell	-10.1289
q	-10.1314
▁throw	-10.1316
▁guns	-10.1317
▁elements	-10.1327
▁Daily	-10.1331
▁advice	-10.1332
▁explained	-10.1336
▁Mike	-10.1337
eth	-10.1345
▁Love	-10.1352
▁''	-10.1355
▁reduced	-10.1357
▁Duke	-10.1358
▁Every	-10.1358
▁concern	-10.1362
To	-10.1367
▁scale	-10.1373
mm	-10.1374
▁Muslim	-10.1376
ure	-10.1376
▁younger	-10.1379
60	-10.1385
▁corner	-10.1387
▁assault	-10.1387
▁pictures	-10.1391
▁operating	-10.1403
▁Today	-10.1404
▁seeking	-10.1405
▁variety	-10.141
▁operation	-10.1411
▁Dan	-10.1413
▁Ma	-10.1415
tra	-10.1416
▁obvious	-10.1422
▁communities	-10.1427
▁Valley	-10.1433
▁replied	-10.1434
▁plane	-10.1445
▁rating	-10.1456
▁confidence	-10.1457
▁fat	-10.1462
▁Jackson	-10.1464
▁tough	-10.1466
-1	-10.1474
▁activities	-10.1479
▁Still	-10.1488
▁2,	-10.1498
▁Latin	-10.1506
▁Guardian	-10.1507
▁allowing	-10.1513
▁thanks	-10.1513
▁Joseph	-10.1517
ries	-10.1517
▁dry	-10.1518
▁opposite	-10.153
▁Tory	-10.1531
▁count	-10.1533
▁suffering	-10.1541
wing	-10.1542
▁Before	-10.1544
▁mission	-10.1544
▁Van	-10.1551
▁measures	-10.1552
▁rare	-10.1563
▁dream	-10.1564
▁appointed	-10.1564
▁afraid	-10.1568
▁danger	-10.1568
war	-10.1569
▁proud	-10.1573
▁Saudi	-10.1574
▁cool	-10.1575
▁circumstances	-10.1583
▁offering	-10.1584
ran	-10.159
▁passing	-10.1603
▁strike	-10.1609
▁projects	-10.1611
▁500	-10.1619
▁favor	-10.1621
▁completed	-10.1624
ung	-10.1635
▁weak	-10.1639
▁balance	-10.1642
▁200	-10.1647
vi	-10.1654
▁Nov	-10.1658
▁remaining	-10.1662
▁poll	-10.1663
▁planned	-10.1664
22	-10.1673
▁Jews	-10.1676
▁sought	-10.1682
.--	-10.1683
ide	-10.1684
▁$2	-10.1686
▁90	-10.1686
▁soft	-10.1689
▁Supreme	-10.169
▁shape	-10.1693
▁launch	-10.1693
▁slightly	-10.1695
▁k	-10.1696
▁values	-10.1697
▁Despite	-10.1704
▁estimated	-10.1708
▁learning	-10.1714
▁Tories	-10.1716
▁armed	-10.1722
▁glass	-10.1727
▁helping	-10.1729
▁originally	-10.173
Yes	-10.1732
▁legislation	-10.1738
▁Northern	-10.1743
ff	-10.1744
32	-10.1747
▁owned	-10.1756
▁Commission	-10.1757
▁existence	-10.1762
▁occurred	-10.1763
▁Putin	-10.1766
▁Egypt	-10.1768
▁articles	-10.1774
dy	-10.1774
▁destroyed	-10.178
▁surprised	-10.1781
▁2000	-10.1782
lan	-10.1783
▁replaced	-10.1783
▁proved	-10.1792
▁screen	-10.1793
ker	-10.1797
▁yesterday	-10.1801
hu	-10.1802
▁Ryan	-10.1804
▁Security	-10.181
▁option	-10.1815
▁division	-10.1818
▁smart	-10.1827
▁sport	-10.1828
▁guilty	-10.1829
▁Once	-10.1832
▁hotel	-10.1835
▁prior	-10.184
▁dance	-10.1841
▁owners	-10.1858
▁conduct	-10.186
han	-10.1861
▁location	-10.1862
▁mobile	-10.1862
▁x	-10.1865
let	-10.1866
▁Ni	-10.1871
use	-10.1872
▁Jo	-10.1875
▁bringing	-10.1877
▁talks	-10.1878
▁Carolina	-10.188
49	-10.1884
▁Na	-10.1891
qui	-10.1891
▁steps	-10.1893
▁widely	-10.1901
see	-10.1922
mon	-10.1929
▁beauty	-10.1933
▁Cor	-10.1936
▁digital	-10.1939
▁sentence	-10.1954
▁journey	-10.1956
▁standards	-10.1959
▁cap	-10.1963
▁somewhat	-10.1966
▁secure	-10.1969
▁alternative	-10.197
che	-10.1975
▁quiet	-10.1979
▁Ad	-10.198
▁importance	-10.1981
▁Free	-10.1982
▁buildings	-10.1986
▁planning	-10.1987
▁Research	-10.1987
▁behavior	-10.1989
▁dollar	-10.1994
);	-10.1996
▁scored	-10.1999
▁extreme	-10.2005
▁bodies	-10.2007
▁fill	-10.2008
▁wine	-10.2009
▁creating	-10.201
▁affected	-10.2018
▁Ta	-10.2019
▁Public	-10.202
▁tea	-10.2023
▁escape	-10.2024
▁ring	-10.2027
▁apart	-10.2029
▁seats	-10.203
▁Edward	-10.2034
▁45	-10.2041
chi	-10.2047
▁fly	-10.2047
▁setting	-10.205
▁pull	-10.2053
46	-10.2063
▁bigger	-10.2066
▁Star	-10.2067
board	-10.207
▁opposed	-10.2071
▁unable	-10.2075
▁equipment	-10.2075
Do	-10.2082
▁territory	-10.2083
▁estate	-10.2086
mp	-10.2089
▁merely	-10.2093
▁Dutch	-10.2099
▁performed	-10.2099
ten	-10.21
▁Cruz	-10.2105
▁admitted	-10.2107
▁false	-10.2109
So	-10.2109
▁plays	-10.211
▁wood	-10.2112
▁anyway	-10.2114
▁Home	-10.2114
▁regard	-10.2122
When	-10.2133
64	-10.2137
▁limit	-10.2146
▁Thus	-10.2149
▁connection	-10.215
▁Bi	-10.2154
▁corporate	-10.2163
ick	-10.2166
ki	-10.2167
▁Report	-10.2169
48	-10.2171
▁thy	-10.2173
▁fixed	-10.2181
ach	-10.2184
▁Scottish	-10.2186
99	-10.2189
▁immigrants	-10.2189
▁r	-10.2194
▁Da	-10.2202
▁signs	-10.2206
right	-10.2209
▁y	-10.2214
are	-10.2217
▁walked	-10.2218
▁pieces	-10.222
La	-10.2222
ments	-10.2228
▁Du	-10.2229
▁spokesman	-10.2231
▁existing	-10.2232
▁Sen	-10.2233
▁appeal	-10.2235
▁About	-10.2249
▁narrow	-10.2256
▁solid	-10.2258
ward	-10.226
▁buying	-10.228
14	-10.2284
▁healthy	-10.2298
▁providing	-10.2305
▁pour	-10.2305
▁bright	-10.2306
▁watched	-10.2307
▁Society	-10.2311
▁Vi	-10.2315
▁walking	-10.2318
▁heads	-10.232
▁background	-10.2323
▁tend	-10.2325
ver	-10.2327
▁platform	-10.2334
▁decline	-10.2336
ned	-10.2337
▁frequently	-10.2341
▁NOT	-10.2341
ue	-10.2344
▁industrial	-10.2346
▁flag	-10.2352
▁decisions	-10.2355
▁vehicles	-10.2357
▁Pa	-10.2358
▁link	-10.2359
▁powers	-10.236
▁Pe	-10.2361
▁request	-10.2362
▁Land	-10.2362
can	-10.2365
▁identified	-10.2372
▁bound	-10.2376
▁grown	-10.2376
▁establishment	-10.239
▁directed	-10.24
▁Such	-10.2402
▁honor	-10.2408
▁Show	-10.2409
ji	-10.241
▁cuts	-10.2413
▁capacity	-10.2414
▁edition	-10.2418
▁pas	-10.2425
▁32	-10.2427
▁plants	-10.2427
▁Governor	-10.2435
she	-10.2435
▁onto	-10.2444
31	-10.2448
ical	-10.2449
▁represent	-10.2452
▁cried	-10.2453
▁defeat	-10.2454
▁Instead	-10.2458
cha	-10.2486
▁Ka	-10.2493
▁independence	-10.2495
58	-10.2501
▁Force	-10.2509
▁totally	-10.2513
23	-10.2513
▁(@	-10.2518
▁supporting	-10.252
▁print	-10.2522
▁Gu	-10.2525
istic	-10.2526
▁silver	-10.2534
▁initial	-10.2537
▁belief	-10.2544
▁Eastern	-10.2547
▁sin	-10.2548
▁royal	-10.2549
▁Jim	-10.2549
▁vice	-10.255
▁allows	-10.255
ile	-10.2552
head	-10.2556
▁1960	-10.2566
▁à	-10.2566
▁Ver	-10.2567
▁concept	-10.2578
▁laugh	-10.2583
▁combined	-10.2583
▁sounds	-10.2589
bit	-10.2591
▁missed	-10.2592
▁typically	-10.2593
27	-10.2596
▁carrying	-10.2602
▁relatively	-10.2602
val	-10.261
▁shouldn	-10.2613
▁vs	-10.2614
▁catch	-10.262
net	-10.2631
▁Its	-10.2632
44	-10.2633
ini	-10.2633
▁Southern	-10.2633
▁upper	-10.2638
▁ought	-10.264
▁motion	-10.2641
▁sky	-10.2643
ery	-10.2662
▁application	-10.2663
▁faces	-10.2663
▁Te	-10.2665
▁honest	-10.2668
▁films	-10.2671
▁w	-10.2672
▁ha	-10.2674
ations	-10.2678
gar	-10.268
mi	-10.2686
▁advance	-10.2687
▁broad	-10.2689
▁Club	-10.269
jpg	-10.2693
▁clothes	-10.2697
▁episode	-10.2697
As	-10.2697
▁device	-10.2712
▁expression	-10.2713
▁scientific	-10.2713
	-10.2731
▁unique	-10.274
▁Ra	-10.2745
▁favorite	-10.2747
▁2.	-10.275
▁accounts	-10.2753
▁plain	-10.2758
▁struggle	-10.276
▁chair	-10.2761
▁constant	-10.2762
▁Syrian	-10.2762
▁Ex	-10.2765
ix	-10.2765
▁Pope	-10.2768
▁contrast	-10.2768
ric	-10.2768
▁guard	-10.2768
▁Sch	-10.277
▁defence	-10.2772
ou	-10.2773
▁proof	-10.2781
▁fired	-10.2787
▁Su	-10.279
▁Houston	-10.28
▁Though	-10.2804
▁terrible	-10.2808
▁acting	-10.2811
▁Ohio	-10.2811
▁definitely	-10.2814
ik	-10.2816
▁stands	-10.282
▁temperature	-10.282
▁exercise	-10.2826
▁criticism	-10.2829
▁classes	-10.283
▁ships	-10.2833
▁causes	-10.2833
ng	-10.2836
▁declined	-10.284
▁notes	-10.2841
▁maintain	-10.2846
▁languages	-10.285
▁adopted	-10.285
▁discussion	-10.2851
▁Ro	-10.2851
▁falling	-10.2858
▁happening	-10.2858
▁devices	-10.286
tal	-10.2862
▁stick	-10.2863
▁producer	-10.2865
▁applied	-10.2866
low	-10.2868
▁lo	-10.2868
42	-10.287
▁historical	-10.2871
▁familiar	-10.2872
▁wonderful	-10.2875
95	-10.2879
ons	-10.2882
▁represented	-10.2887
pro	-10.2888
▁slowly	-10.2889
33	-10.2889
▁magazine	-10.2896
▁extended	-10.2896
11	-10.2896
▁favour	-10.2904
▁drawn	-10.2906
ified	-10.2907
▁port	-10.2907
▁vision	-10.2908
▁cultural	-10.291
▁Director	-10.2916
▁AM	-10.2921
36	-10.2929
▁Award	-10.2931
▁33	-10.2933
▁doctors	-10.2936
▁changing	-10.2938
▁protest	-10.2939
▁wave	-10.2939
▁surely	-10.2944
▁bid	-10.2947
▁orders	-10.295
▁meat	-10.2953
yn	-10.2957
▁Chelsea	-10.2963
▁persons	-10.2963
ification	-10.2966
▁regarding	-10.2966
▁units	-10.2972
Well	-10.2975
▁easier	-10.2976
▁(_	-10.2977
▁Game	-10.2985
▁infrastructure	-10.2986
▁apply	-10.2986
▁Meanwhile	-10.2987
▁Ed	-10.2997
▁Pakistan	-10.3009
▁reference	-10.3013
▁items	-10.3015
▁pounds	-10.3017
▁hell	-10.3019
▁Second	-10.3025
▁engine	-10.3032
▁crash	-10.3033
▁volume	-10.3035
▁Market	-10.3042
▁Sp	-10.3043
70	-10.3044
▁*"	-10.3045
lu	-10.3052
▁lying	-10.3056
▁remove	-10.3056
▁Amazon	-10.3063
▁transport	-10.3065
▁planet	-10.3065
▁promise	-10.3074
▁academic	-10.3077
▁Harry	-10.308
dis	-10.3082
▁split	-10.3085
▁connected	-10.3089
▁pointed	-10.3089
▁49	-10.309
▁divided	-10.3094
▁determine	-10.3097
▁gained	-10.31
▁purchase	-10.3109
▁iron	-10.3118
▁injured	-10.3122
▁excellent	-10.3122
▁winner	-10.3125
▁worry	-10.3138
▁Bowl	-10.3138
▁links	-10.3144
▁welcome	-10.3146
▁opportunities	-10.3151
▁attend	-10.3157
▁god	-10.3158
▁ma	-10.3161
▁suffer	-10.3164
▁finish	-10.3168
De	-10.317
▁edge	-10.3171
▁Women	-10.3179
▁talent	-10.3181
▁*1	-10.3184
▁ordinary	-10.3184
▁Three	-10.3185
▁forth	-10.32
▁Saint	-10.3204
▁crew	-10.3208
▁Captain	-10.3213
▁camera	-10.3215
▁ourselves	-10.3219
▁ride	-10.3221
▁Ke	-10.3222
▁route	-10.3223
▁Andrew	-10.3233
point	-10.324
▁Battle	-10.3243
▁Sha	-10.3244
▁professor	-10.3246
▁harm	-10.3248
▁pleasure	-10.3257
▁capable	-10.3262
ability	-10.3266
▁mainly	-10.3276
▁promised	-10.3282
▁unknown	-10.3286
▁principle	-10.3291
▁Matt	-10.3295
nes	-10.3296
All	-10.3296
▁Port	-10.3297
▁taught	-10.3306
54	-10.3307
▁emergency	-10.3309
▁Afghanistan	-10.3312
▁knowing	-10.3315
▁stores	-10.3319
▁increasingly	-10.3327
▁driven	-10.3328
▁advanced	-10.3328
37	-10.3332
▁Steve	-10.3335
ani	-10.3341
post	-10.3343
▁mess	-10.3345
▁experts	-10.3347
berg	-10.3351
▁factor	-10.3352
▁pulled	-10.3354
tor	-10.3359
▁Sanders	-10.3363
ever	-10.3386
work	-10.3386
▁affairs	-10.3386
▁nobody	-10.34
▁fault	-10.3401
88	-10.3403
▁cheap	-10.3403
ball	-10.3404
▁useful	-10.3404
▁leg	-10.3405
▁ratio	-10.3406
▁Bob	-10.3406
des	-10.3408
▁alive	-10.3411
▁feed	-10.3414
▁earnings	-10.3416
▁handle	-10.3417
▁extent	-10.342
▁destroy	-10.3421
▁offensive	-10.3422
▁alleged	-10.3424
▁jail	-10.3424
▁Among	-10.3425
▁garden	-10.3429
▁minor	-10.3429
▁serving	-10.3431
▁teacher	-10.3435
▁chain	-10.344
▁positions	-10.344
▁pop	-10.344
▁metal	-10.3442
▁thinks	-10.3449
▁severe	-10.345
▁Korean	-10.3453
▁follows	-10.3454
41	-10.3457
▁stream	-10.3463
▁marked	-10.3469
▁acts	-10.347
06	-10.3473
▁sir	-10.3477
▁Liverpool	-10.3479
▁Have	-10.3481
▁dogs	-10.3484
▁creation	-10.3484
▁Emperor	-10.3487
ped	-10.3489
▁reaction	-10.349
ER	-10.3493
▁wage	-10.3494
35	-10.3494
▁amazing	-10.3497
▁Cha	-10.3502
▁Tim	-10.351
▁models	-10.3514
ci	-10.3515
▁sharp	-10.3519
▁Ba	-10.352
86	-10.3522
▁mistake	-10.3524
▁Olympic	-10.3525
▁smile	-10.3527
light	-10.3537
▁Out	-10.3537
▁row	-10.3541
▁ruling	-10.3543
▁2006	-10.3547
▁spoken	-10.3548
▁Fire	-10.355
down	-10.3556
du	-10.3557
▁Open	-10.3563
▁Oct	-10.357
▁MP	-10.3575
▁tradition	-10.3575
▁requires	-10.3579
▁observed	-10.3579
called	-10.358
40	-10.3594
▁internal	-10.3598
tz	-10.3599
▁reporting	-10.3601
▁earned	-10.3603
-2	-10.3604
▁34	-10.3608
▁delivered	-10.3611
▁portion	-10.3618
▁Board	-10.3619
▁Taylor	-10.362
ual	-10.362
An	-10.3624
▁zero	-10.363
▁core	-10.3635
▁sugar	-10.3637
▁Rock	-10.3643
01	-10.3648
34	-10.365
▁images	-10.365
▁Nations	-10.3654
▁walls	-10.366
▁Ne	-10.3666
org	-10.3669
▁closely	-10.3675
▁taste	-10.3675
▁Young	-10.3676
mb	-10.3677
▁musical	-10.368
▁institutions	-10.3682
ette	-10.3683
pi	-10.3684
▁Did	-10.3684
▁blow	-10.3688
▁Hollywood	-10.3698
▁perform	-10.3701
▁Israeli	-10.3703
▁chose	-10.3704
▁)	-10.3711
▁Academy	-10.372
$	-10.3724
ins	-10.3725
▁documents	-10.3726
▁miss	-10.3727
▁NHS	-10.373
▁filed	-10.3731
▁cat	-10.3731
who	-10.3735
▁Gen	-10.3736
▁36	-10.3739
Le	-10.3741
▁arrest	-10.3742
▁Wales	-10.3746
ura	-10.3752
▁songs	-10.3754
▁Human	-10.3756
▁closer	-10.3756
▁decent	-10.3757
▁task	-10.3758
▁drew	-10.3759
▁regime	-10.376
▁restaurant	-10.376
long	-10.3761
▁Islam	-10.3763
▁captain	-10.3768
▁defined	-10.3768
ris	-10.377
▁considering	-10.377
▁skills	-10.3771
▁whilst	-10.3772
▁$4	-10.3779
US	-10.3781
▁Pan	-10.3782
65	-10.3791
▁rid	-10.3795
▁analysts	-10.3799
▁bond	-10.38
89	-10.3801
▁facing	-10.3802
▁denied	-10.3803
▁zone	-10.3803
▁fought	-10.3804
▁index	-10.3805
▁funny	-10.3806
▁contributed	-10.3814
52	-10.3819
▁{	-10.3821
▁fruit	-10.3822
▁understood	-10.3829
▁hopes	-10.3829
▁defend	-10.384
▁fail	-10.3841
▁teachers	-10.3846
▁signal	-10.3847
▁busy	-10.3849
02	-10.3849
▁replace	-10.3852
▁Romney	-10.3856
ai	-10.3856
▁van	-10.386
▁perfectly	-10.3861
▁broadcast	-10.3863
▁Sept	-10.3866
▁WITH	-10.3878
08	-10.3889
▁options	-10.3892
▁occasion	-10.3896
▁$5	-10.3897
56	-10.3902
▁thoughts	-10.3906
air	-10.3907
▁silence	-10.3909
▁Tu	-10.3911
▁fifth	-10.3912
▁believes	-10.3915
▁disaster	-10.3918
ice	-10.392
▁eastern	-10.3926
▁obtained	-10.3932
▁kid	-10.3938
▁file	-10.394
▁relief	-10.3941
▁picked	-10.3941
▁eating	-10.3944
▁focused	-10.3949
39	-10.395
▁Santa	-10.3953
some	-10.3956
they	-10.3961
fer	-10.3962
▁survey	-10.3965
▁engaged	-10.3968
▁regional	-10.3972
ph	-10.3974
▁Stephen	-10.3976
▁thick	-10.3976
-3	-10.3976
▁ca	-10.3979
▁chosen	-10.3992
▁minimum	-10.3994
▁sites	-10.3995
▁Music	-10.3999
▁CNN	-10.4004
▁anywhere	-10.4006
▁Far	-10.4007
▁immediate	-10.4008
▁£	-10.4011
▁everybody	-10.4011
har	-10.4016
▁farm	-10.4022
ians	-10.4027
▁percentage	-10.4031
▁experienced	-10.4033
▁thank	-10.4033
ological	-10.4037
▁shame	-10.4037
▁Daniel	-10.4037
▁principal	-10.4039
▁Real	-10.4042
▁poet	-10.4042
"),	-10.4044
▁treat	-10.4045
▁shoot	-10.4046
▁Ukraine	-10.4049
▁Civil	-10.405
▁attended	-10.405
▁violent	-10.4051
rate	-10.4061
▁reporters	-10.4063
▁wake	-10.407
▁approved	-10.4076
▁soil	-10.4079
isation	-10.408
▁champion	-10.4082
▁thin	-10.4091
AL	-10.4097
▁Gra	-10.4097
!!!	-10.4106
▁identity	-10.4106
▁possession	-10.411
pre	-10.4112
law	-10.4115
▁Pacific	-10.4115
▁possibility	-10.4115
▁developing	-10.4115
▁bag	-10.4121
uff	-10.4122
▁employed	-10.4123
▁readers	-10.4124
▁electric	-10.4125
▁deliver	-10.4125
▁visited	-10.4125
▁accident	-10.4127
▁manage	-10.4129
▁distribution	-10.413
▁bi	-10.4131
▁approximately	-10.4133
▁realize	-10.4134
▁environmental	-10.4139
▁refugees	-10.4142
▁poverty	-10.4143
▁agent	-10.4146
oc	-10.4148
▁Chi	-10.4148
▁Up	-10.4152
▁Constitution	-10.4154
▁https	-10.4159
▁injuries	-10.4161
85	-10.4161
ens	-10.4165
▁assets	-10.4167
class	-10.4168
▁Adam	-10.4172
▁combination	-10.4172
▁settled	-10.4173
▁joint	-10.4175
▁centuries	-10.4176
jo	-10.4177
How	-10.4177
ator	-10.4187
▁Muslims	-10.4188
▁parliament	-10.419
▁wedding	-10.419
ble	-10.419
▁ce	-10.4192
▁Bre	-10.4193
▁crimes	-10.4197
ray	-10.4204
▁Davis	-10.4212
55	-10.422
▁brief	-10.4226
▁patient	-10.4231
▁Jr	-10.4232
▁factors	-10.4235
▁respond	-10.4236
lar	-10.4238
53	-10.4239
▁contains	-10.4241
▁award	-10.4243
▁Book	-10.4244
▁Va	-10.4245
▁properties	-10.4248
mann	-10.425
▁consumer	-10.4253
96	-10.4254
pm	-10.4254
▁granted	-10.4254
▁regions	-10.4261
vin	-10.4265
▁suggests	-10.4267
▁Each	-10.4269
▁materials	-10.427
▁Aug	-10.4273
ari	-10.4279
▁mountain	-10.428
▁user	-10.4282
▁warning	-10.4283
▁joy	-10.4295
▁Dis	-10.4297
▁Zealand	-10.43
▁Gar	-10.43
▁flow	-10.4312
▁IS	-10.4314
▁admit	-10.4315
▁Tri	-10.4325
fa	-10.4327
▁conducted	-10.4329
▁parent	-10.4331
79	-10.4335
▁cards	-10.4335
▁steel	-10.4337
▁Little	-10.4339
▁elsewhere	-10.4343
▁pan	-10.4344
▁achieve	-10.4352
▁prefer	-10.4352
67	-10.4357
Â	-10.4359
Con	-10.4359
▁empty	-10.4361
ot	-10.4361
▁Mon	-10.4364
▁begins	-10.4373
▁yellow	-10.4381
ther	-10.4381
▁Tony	-10.4381
row	-10.4384
▁Image	-10.4384
▁Alexander	-10.4386
▁neck	-10.4388
▁Blue	-10.4389
town	-10.4396
▁employment	-10.4398
tu	-10.4399
▁blind	-10.4401
cher	-10.4403
97	-10.4405
▁appropriate	-10.4407
03	-10.441
▁2005	-10.4418
▁Journal	-10.442
▁Wilson	-10.4421
▁Coast	-10.4421
▁affect	-10.4429
rk	-10.4431
▁Si	-10.4433
hr	-10.4438
aw	-10.4439
▁shift	-10.4441
▁Manchester	-10.4449
▁angry	-10.4454
▁aside	-10.4455
ions	-10.4461
▁Please	-10.4462
yl	-10.4465
▁sa	-10.4465
▁heavily	-10.4467
▁Jean	-10.4468
▁methods	-10.447
▁holds	-10.4471
45	-10.4476
ath	-10.4476
94	-10.4477
▁SA	-10.4491
▁ruled	-10.4494
?”	-10.4498
▁Christians	-10.4499
▁giant	-10.45
▁properly	-10.4501
▁occur	-10.4507
▁bridge	-10.4508
▁Navy	-10.4511
▁smoke	-10.4519
▁expansion	-10.4524
▁mixed	-10.4538
▁coal	-10.4542
▁Sports	-10.4545
Al	-10.4547
▁discuss	-10.4549
▁Any	-10.455
▁artists	-10.4551
▁Ford	-10.4554
▁Elizabeth	-10.4555
▁ideal	-10.4556
▁pure	-10.4556
▁proposal	-10.4561
free	-10.4566
▁chairman	-10.458
▁fix	-10.4581
tes	-10.4582
81	-10.4583
▁roads	-10.4586
stone	-10.4586
▁Business	-10.459
bb	-10.4592
▁editor	-10.46
-4	-10.46
fi	-10.4603
▁Wood	-10.461
▁Capital	-10.461
▁attorney	-10.4613
▁context	-10.462
▁38	-10.4621
▁element	-10.4621
app	-10.4625
▁internet	-10.4628
▁ultimately	-10.4632
▁Part	-10.4634
▁commonly	-10.4636
▁earn	-10.4642
83	-10.4645
▁innocent	-10.4647
▁faced	-10.4649
▁organizations	-10.4649
era	-10.4651
Why	-10.4652
▁agencies	-10.4659
▁governments	-10.4663
AD	-10.4669
▁drivers	-10.467
Ma	-10.4675
▁causing	-10.4676
▁bomb	-10.468
▁Ti	-10.4682
59	-10.4683
▁airport	-10.4683
▁scheduled	-10.4686
▁transfer	-10.4689
▁argued	-10.4691
▁FOR	-10.4692
▁principles	-10.4694
▁Social	-10.4696
Me	-10.4698
▁copy	-10.47
▁breaking	-10.4702
▁province	-10.4704
▁dealing	-10.4706
cy	-10.4706
▁Rose	-10.4709
▁cup	-10.4712
ven	-10.4715
▁ends	-10.4715
▁starts	-10.4716
▁ridiculous	-10.4716
09	-10.4719
82	-10.4723
▁lots	-10.4726
▁refer	-10.4728
▁Brazil	-10.4729
▁Foundation	-10.4736
▁Ga	-10.4736
▁3,	-10.4736
▁attempts	-10.4747
▁origin	-10.4748
run	-10.4749
▁pot	-10.4758
69	-10.4759
▁carbon	-10.4764
▁fallen	-10.4764
▁secretary	-10.4768
▁currency	-10.4769
▁consequences	-10.477
▁feels	-10.4773
▁agenda	-10.4774
ay	-10.4775
▁Foreign	-10.4779
eg	-10.4788
▁attacked	-10.4792
▁pushed	-10.4794
▁loan	-10.4798
▁tone	-10.4798
▁thrown	-10.4805
▁CHAPTER	-10.481
tel	-10.4811
▁Hu	-10.4811
▁Ru	-10.4815
▁promote	-10.4817
▁milk	-10.4819
▁Arab	-10.4823
▁receiving	-10.4826
▁im	-10.4828
▁scheme	-10.4828
▁Nor	-10.4829
▁Posted	-10.4836
ola	-10.4838
▁saved	-10.4846
▁branch	-10.4846
▁contain	-10.4854
▁somewhere	-10.4854
▁jump	-10.4857
zi	-10.4857
▁drawing	-10.486
▁Ja	-10.486
▁guide	-10.486
▁statements	-10.4861
▁flying	-10.4864
▁Sal	-10.4864
▁Poland	-10.4868
▁improved	-10.4871
▁comfort	-10.4872
hand	-10.4874
▁37	-10.4877
▁deals	-10.4877
......	-10.4878
▁attempted	-10.4882
▁salt	-10.4882
iz	-10.4887
ata	-10.4888
▁describe	-10.4894
▁scientists	-10.4897
cho	-10.4902
77	-10.4905
▁honour	-10.4905
▁sand	-10.4911
-5	-10.4915
▁headline	-10.4919
▁2002	-10.4922
▁session	-10.4923
▁sufficient	-10.4924
▁sake	-10.4928
ara	-10.4939
▁drama	-10.4941
▁terrorist	-10.4944
▁equally	-10.4949
▁noticed	-10.4952
▁Pen	-10.4955
▁Call	-10.4968
▁pace	-10.4974
▁Order	-10.4975
ip	-10.4976
false	-10.4979
▁leads	-10.498
▁Lewis	-10.4982
▁Reuters	-10.4982
▁talked	-10.4982
▁rail	-10.4984
▁draft	-10.4985
▁rent	-10.4985
▁turns	-10.4992
▁Jersey	-10.4994
▁unto	-10.4995
▁definition	-10.4996
▁Thank	-10.4999
62	-10.4999
▁sum	-10.5
}	-10.5001
▁recognized	-10.5001
▁cells	-10.5002
▁retired	-10.5004
▁racist	-10.5004
▁semi	-10.5007
▁Par	-10.5008
ps	-10.5009
▁defensive	-10.5011
▁passage	-10.5018
len	-10.5025
63	-10.5025
▁brown	-10.5025
▁adult	-10.5026
▁sending	-10.5027
▁settlement	-10.5028
▁baseball	-10.5031
▁forecast	-10.5035
IL	-10.5036
▁Ch	-10.5036
▁medicine	-10.5036
▁fields	-10.5038
▁penalty	-10.504
▁inspired	-10.5042
▁UKIP	-10.5049
▁objects	-10.505
▁dozen	-10.5051
▁hoping	-10.5055
▁Water	-10.5059
▁commission	-10.5067
water	-10.5069
vis	-10.5072
100	-10.5072
▁trend	-10.5079
▁Asian	-10.5082
▁fairly	-10.5087
ious	-10.5089
rie	-10.509
▁attitude	-10.5091
▁u	-10.5096
star	-10.51
47	-10.5104
▁teaching	-10.5112
▁weren	-10.5114
▁apartment	-10.5115
▁NO	-10.5116
▁RE	-10.5117
qu	-10.5117
cent	-10.5119
▁surgery	-10.512
▁folks	-10.512
▁AT	-10.5121
▁coffee	-10.5122
▁Cross	-10.5125
71	-10.5126
76	-10.5129
▁relative	-10.5129
▁controlled	-10.5132
▁da	-10.5135
▁constantly	-10.5135
si	-10.5137
px	-10.5138
▁Pat	-10.5144
▁approval	-10.515
▁journalist	-10.516
▁gender	-10.5161
▁regarded	-10.5162
04	-10.5162
▁roll	-10.5164
ging	-10.5168
▁Bur	-10.5169
▁Democrat	-10.5174
▁colour	-10.5176
▁rapidly	-10.5176
▁raising	-10.5177
▁enforcement	-10.5178
▁initially	-10.5179
▁nearby	-10.518
▁captured	-10.5183
▁chemical	-10.5185
▁Gold	-10.519
▁Nick	-10.5194
▁IV	-10.5196
▁essential	-10.5198
ES	-10.5204
▁Top	-10.5205
IT	-10.5205
▁mayor	-10.5208
▁Media	-10.5209
gu	-10.521
▁wages	-10.521
ella	-10.5211
▁Wa	-10.5213
▁Global	-10.5213
▁Take	-10.5214
--"	-10.5214
ose	-10.5215
▁Major	-10.5227
▁excited	-10.5228
▁featured	-10.5231
▁odd	-10.5232
▁ceremony	-10.524
▁welfare	-10.524
▁kingdom	-10.5249
▁wins	-10.5252
Be	-10.5253
pping	-10.5256
▁sp	-10.5257
▁kick	-10.5258
ane	-10.5259
▁assistance	-10.5267
▁represents	-10.5276
▁manufacturing	-10.5276
▁horses	-10.5276
▁Blair	-10.5286
▁ending	-10.529
▁joke	-10.5291
▁formal	-10.5294
07	-10.5296
▁cutting	-10.5299
OR	-10.5302
▁stations	-10.5305
je	-10.5316
now	-10.5316
foot	-10.5317
▁behaviour	-10.5318
▁Che	-10.5321
▁PC	-10.5321
▁consumers	-10.5327
▁Bridge	-10.5328
On	-10.5332
▁roof	-10.5337
▁trans	-10.5337
▁deaths	-10.5338
▁deeply	-10.5339
▁terror	-10.5341
▁polls	-10.5345
66	-10.5346
▁FBI	-10.5346
▁1950	-10.5349
▁iPhone	-10.5353
▁typical	-10.5355
▁comparison	-10.5355
▁writes	-10.5363
▁reputation	-10.5364
▁height	-10.5365
▁revolution	-10.5371
▁moon	-10.5372
uch	-10.5376
fe	-10.5376
▁pool	-10.5381
▁literature	-10.5382
61	-10.5386
▁gift	-10.5387
ita	-10.5387
▁papers	-10.5392
):	-10.5398
▁minority	-10.5399
▁Power	-10.5403
,--	-10.5405
▁Several	-10.5405
▁pitch	-10.5407
▁flowers	-10.5412
▁warned	-10.5414
▁Ge	-10.5421
▁threatened	-10.5426
▁entitled	-10.543
Illustration	-10.5439
▁Kelly	-10.544
▁fleet	-10.5441
▁Ju	-10.5443
▁applications	-10.5443
ties	-10.5445
▁Associated	-10.5446
tin	-10.5448
▁classic	-10.545
▁Georgia	-10.5454
▁Mor	-10.5454
▁Series	-10.5454
▁primarily	-10.5456
▁mere	-10.5461
▁legs	-10.5462
▁Col	-10.5462
▁announcement	-10.5465
nch	-10.5468
▁losses	-10.5471
▁65	-10.5477
▁excuse	-10.5481
▁Cal	-10.5481
Getty	-10.5483
▁absolute	-10.5483
▁bunch	-10.5484
▁assume	-10.5491
▁Science	-10.5492
▁Father	-10.5492
ich	-10.5495
▁equivalent	-10.5497
▁Michigan	-10.5503
▁Fair	-10.5505
▁Jay	-10.5508
km	-10.5511
▁2016.	-10.5512
▁destruction	-10.5513
amp	-10.5518
ding	-10.5519
▁Fort	-10.5521
▁Games	-10.5525
part	-10.5533
▁imp	-10.5535
▁combat	-10.5537
▁cry	-10.5538
▁exact	-10.5538
PS	-10.5543
▁researchers	-10.5544
▁je	-10.5547
▁rival	-10.5549
▁democratic	-10.5553
▁si	-10.5558
▁Could	-10.5564
ory	-10.5564
▁philosophy	-10.5566
iv	-10.5575
▁recovery	-10.5575
▁ticket	-10.5577
▁Film	-10.5577
gate	-10.5577
▁comfortable	-10.5578
▁impression	-10.5578
bed	-10.5587
▁informed	-10.5596
▁Dave	-10.5598
par	-10.5604
▁surrounding	-10.5605
▁inflation	-10.5605
▁rejected	-10.5606
▁ocean	-10.5608
mail	-10.5614
bra	-10.5617
▁greatly	-10.562
51	-10.5623
▁founder	-10.5627
ks	-10.5628
sch	-10.5629
▁charity	-10.5631
84	-10.5631
▁threw	-10.5632
Star	-10.5642
oon	-10.5643
▁mad	-10.5643
▁Ab	-10.5649
▁reign	-10.5656
▁2015,	-10.5658
▁considerable	-10.5658
▁plot	-10.5661
▁strongly	-10.5661
▁;	-10.5662
▁mix	-10.5668
gue	-10.5671
▁returning	-10.5681
87	-10.5683
night	-10.5685
ski	-10.5689
▁Dar	-10.5691
what	-10.5693
▁Bell	-10.5694
▁luck	-10.5694
▁channel	-10.5698
▁permanent	-10.5701
▁48	-10.5708
▁constitution	-10.5714
▁tired	-10.5719
▁necessarily	-10.5722
ren	-10.5724
▁writers	-10.573
▁tied	-10.5731
▁forest	-10.5732
tion	-10.5735
▁sudden	-10.5739
uck	-10.574
74	-10.5748
▁3.	-10.5752
▁Early	-10.5752
").	-10.5754
▁Further	-10.5759
▁Corp	-10.5761
▁stake	-10.5769
af	-10.5773
▁nose	-10.5777
▁worried	-10.5777
▁tears	-10.5777
▁prominent	-10.578
▁abroad	-10.5783
▁roughly	-10.5783
▁Eric	-10.5783
lie	-10.5787
▁corruption	-10.579
▁alcohol	-10.5796
▁enjoyed	-10.58
▁repeated	-10.5801
▁programme	-10.5809
▁publicly	-10.581
▁resulting	-10.5812
▁Ali	-10.5812
ala	-10.5812
▁humans	-10.5812
▁cloud	-10.5821
▁Turkish	-10.5823
▁2004	-10.5824
▁responded	-10.5826
▁NBC	-10.5829
▁judgment	-10.5829
gy	-10.5837
▁hall	-10.5838
▁rear	-10.5844
▁Stone	-10.5845
Ro	-10.5854
▁tiny	-10.5856
▁urban	-10.5857
▁plastic	-10.5859
▁stronger	-10.5862
▁hole	-10.5863
▁300	-10.5865
win	-10.5865
▁2016,	-10.587
▁noise	-10.5871
ada	-10.5872
▁Has	-10.5875
▁Olympics	-10.5876
▁pages	-10.5877
▁Philip	-10.588
▁somebody	-10.5886
▁resistance	-10.5887
▁composer	-10.5896
gi	-10.5896
ell	-10.5902
▁entertainment	-10.5903
43	-10.5905
▁alongside	-10.5915
▁technical	-10.5915
▁argue	-10.5917
▁unlike	-10.5919
▁arrival	-10.5921
▁express	-10.593
▁Mexican	-10.5933
▁Bible	-10.5936
▁opinions	-10.594
▁Hospital	-10.5944
▁grave	-10.5945
▁passengers	-10.5946
▁Watch	-10.5946
▁customer	-10.5946
ave	-10.5947
▁feelings	-10.5947
▁anybody	-10.5949
▁transition	-10.5951
▁Simon	-10.5956
▁42	-10.5959
▁Polish	-10.5961
▁tournament	-10.5962
▁shock	-10.5963
▁Ku	-10.5964
Post	-10.597
nic	-10.5975
▁survive	-10.5976
▁cycle	-10.5977
rick	-10.5977
▁lowest	-10.5978
▁personally	-10.598
Ha	-10.5981
▁afterwards	-10.5981
▁degrees	-10.5982
▁1995	-10.5986
▁occupied	-10.5986
▁contained	-10.5994
▁rescue	-10.5994
ria	-10.6004
▁Premier	-10.6006
▁blog	-10.6011
▁borders	-10.6018
ute	-10.6019
▁awful	-10.6019
▁Val	-10.6019
tain	-10.6021
million	-10.6027
▁assistant	-10.6031
▁neighborhood	-10.6031
▁hat	-10.6034
twitter	-10.6035
▁qu	-10.6035
▁hang	-10.6037
fully	-10.6042
▁kitchen	-10.6046
▁em	-10.6047
▁Judge	-10.6047
▁defeated	-10.6047
▁Holy	-10.6047
▁selection	-10.605
und	-10.6059
▁(1	-10.6062
▁Airport	-10.6063
▁rally	-10.6064
▁Euro	-10.6064
▁Senator	-10.6065
▁75	-10.6067
▁Miller	-10.6068
▁web	-10.6072
▁adults	-10.6073
▁Berlin	-10.6074
▁Four	-10.6074
▁39	-10.6075
▁calendar	-10.6077
known	-10.6079
▁1992	-10.6087
▁Francis	-10.6087
ub	-10.6087
▁everywhere	-10.6092
▁cable	-10.6095
ae	-10.6095
ky	-10.6097
nce	-10.61
Mo	-10.6102
▁Which	-10.6109
▁phase	-10.6111
57	-10.6114
▁fake	-10.6114
▁h	-10.6116
▁lovely	-10.6117
az	-10.6117
▁Look	-10.6118
▁spin	-10.6122
▁grass	-10.6124
▁compete	-10.6124
▁coalition	-10.6125
▁tools	-10.6125
▁Education	-10.6128
gan	-10.6133
▁reasonable	-10.6134
▁canvas	-10.6134
▁4,	-10.6135
▁effectively	-10.6136
▁suicide	-10.6139
▁References	-10.614
▁acid	-10.614
▁explanation	-10.6146
▁testing	-10.6147
▁atmosphere	-10.6149
CH	-10.615
▁reply	-10.6152
73	-10.6152
▁intellectual	-10.6155
▁facilities	-10.6162
▁Live	-10.618
▁hide	-10.6184
▁drinking	-10.6185
▁worldwide	-10.6186
▁map	-10.6188
91	-10.619
▁Management	-10.6194
▁panel	-10.6195
▁radical	-10.6195
▁coat	-10.6195
▁description	-10.6195
▁basketball	-10.6198
LE	-10.6198
▁shopping	-10.6198
▁Ten	-10.6203
▁selected	-10.6205
▁Having	-10.621
▁Ri	-10.6211
even	-10.6215
▁Division	-10.6218
▁Mal	-10.6219
▁returns	-10.622
▁Atlantic	-10.6221
under	-10.6222
▁Arthur	-10.6223
▁	-10.6225
▁achieved	-10.6226
▁soldier	-10.6227
▁Night	-10.6227
▁Lincoln	-10.6233
▁slaves	-10.6234
life	-10.6239
▁slave	-10.6242
▁pic	-10.6243
▁deserve	-10.6245
▁stocks	-10.6246
▁bread	-10.6249
▁punishment	-10.6256
▁CO	-10.6257
aries	-10.6257
72	-10.6261
style	-10.6263
bu	-10.6264
▁finance	-10.6264
ye	-10.6265
▁marketing	-10.6271
▁lips	-10.6273
▁recognize	-10.6274
Co	-10.6283
▁migrants	-10.6286
▁tall	-10.6286
▁acquired	-10.6288
▁auto	-10.6289
▁Morgan	-10.6291
▁Mi	-10.6306
▁Fe	-10.6307
ade	-10.6307
▁Rob	-10.6309
▁communication	-10.631
▁tech	-10.6312
bel	-10.6315
▁5.	-10.6315
▁partners	-10.6321
▁anymore	-10.6324
▁significantly	-10.6325
▁islands	-10.6325
▁unlikely	-10.6329
oo	-10.633
▁Avenue	-10.6335
sha	-10.6337
▁foundation	-10.6337
▁resulted	-10.634
▁heaven	-10.6343
▁drove	-10.6346
:00	-10.6349
ob	-10.635
▁1994	-10.6355
▁pilot	-10.6369
▁fiscal	-10.637
▁agents	-10.6372
▁breath	-10.6372
state	-10.6377
▁capture	-10.638
▁studio	-10.6384
▁loose	-10.6384
▁faster	-10.6385
▁custom	-10.6387
med	-10.6391
▁carefully	-10.6391
▁somehow	-10.6393
▁motor	-10.6398
su	-10.6398
▁clubs	-10.64
▁dad	-10.64
▁Had	-10.6407
▁na	-10.6417
▁practical	-10.6417
▁shortly	-10.642
`	-10.6421
▁von	-10.6427
▁Je	-10.6431
▁calm	-10.6432
▁Kennedy	-10.6432
▁wise	-10.6432
▁44	-10.6439
▁pension	-10.6439
▁listed	-10.6448
▁invasion	-10.6448
▁begun	-10.645
▁mode	-10.6451
▁doors	-10.6451
▁debut	-10.6456
▁teach	-10.6456
▁goods	-10.6456
▁experiment	-10.6457
▁Vo	-10.6457
▁campus	-10.646
▁linked	-10.6461
▁negotiations	-10.6462
▁Following	-10.6463
burg	-10.6467
cal	-10.6468
▁Bernie	-10.6471
▁Ban	-10.6473
▁scandal	-10.6474
▁beach	-10.6475
art	-10.6478
▁allegations	-10.6479
ily	-10.648
▁Services	-10.648
▁challenges	-10.648
▁Town	-10.6481
▁Tour	-10.6483
ett	-10.6483
▁sing	-10.6487
▁boost	-10.6488
▁towns	-10.6497
▁hill	-10.6498
▁wealthy	-10.6501
▁Arizona	-10.6502
▁lucky	-10.6503
▁shoulder	-10.6505
▁claiming	-10.6508
▁Kansas	-10.651
SA	-10.651
▁historic	-10.6511
▁increases	-10.6511
yard	-10.6513
▁birds	-10.6514
▁conclusion	-10.6515
IN	-10.6519
▁Massachusetts	-10.652
▁facility	-10.652
▁Square	-10.652
▁mom	-10.6522
MA	-10.6522
▁specifically	-10.6525
▁rapid	-10.6526
▁shore	-10.6527
▁prepare	-10.6528
▁1999	-10.653
sky	-10.6534
▁Jordan	-10.6536
▁pleased	-10.6538
▁realise	-10.6541
▁difficulty	-10.6544
▁rough	-10.6547
▁frame	-10.6549
▁stuck	-10.6551
▁entry	-10.6553
▁retirement	-10.6556
▁rarely	-10.6557
▁Mel	-10.6558
▁passion	-10.6561
68	-10.6564
ming	-10.6565
▁silent	-10.6566
▁pride	-10.6567
▁critics	-10.6571
▁succeeded	-10.6574
5,000	-10.6577
▁Arsenal	-10.6578
▁tests	-10.6579
▁functions	-10.658
▁exit	-10.6586
▁error	-10.659
▁th	-10.6594
05	-10.6598
▁AP	-10.6601
▁Barack	-10.6606
▁Cat	-10.6607
▁gathered	-10.661
▁composed	-10.6611
▁household	-10.6613
▁Mass	-10.6616
▁stress	-10.6616
▁officially	-10.6619
▁..	-10.6626
2%	-10.6628
tri	-10.6628
▁4.	-10.6634
▁visitors	-10.6635
▁Bra	-10.6638
▁fa	-10.6638
▁desperate	-10.6638
▁Brian	-10.6641
▁brothers	-10.6642
▁document	-10.6643
ET	-10.6644
▁amid	-10.6646
pin	-10.6648
▁truck	-10.6648
▁reportedly	-10.6649
ient	-10.6649
▁Allen	-10.6652
▁GDP	-10.6655
▁Later	-10.6658
▁diet	-10.6658
▁dedicated	-10.6659
▁Right	-10.6663
▁sets	-10.6664
ec	-10.6667
ants	-10.6667
▁Fed	-10.6673
3%	-10.668
Don	-10.6682
▁Next	-10.6683
▁41	-10.6683
mes	-10.6688
▁2014,	-10.6689
ans	-10.669
ano	-10.67
▁courts	-10.6705
▁IT	-10.6705
▁moments	-10.6706
▁relation	-10.6706
▁weapon	-10.6711
000	-10.6711
▁fees	-10.6713
▁Pennsylvania	-10.6717
▁wounded	-10.6719
▁fewer	-10.672
▁Jacob	-10.6723
lon	-10.6728
▁uniform	-10.6728
▁exposed	-10.6728
▁Assembly	-10.6729
▁contest	-10.6734
▁bet	-10.6738
▁membership	-10.6739
▁absence	-10.6739
ving	-10.6741
▁default	-10.6746
78	-10.6749
▁brave	-10.6751
fo	-10.6753
▁pound	-10.6753
▁Son	-10.6758
▁identify	-10.6758
▁concert	-10.6763
▁stable	-10.6763
▁dont	-10.6764
▁Mer	-10.6765
▁Las	-10.6765
▁closing	-10.6772
▁Mayor	-10.6772
▁struggling	-10.6777
▁invited	-10.6779
TV	-10.6779
▁apparent	-10.6783
CA	-10.6783
▁Trade	-10.6785
there	-10.6788
▁valuable	-10.679
▁Awards	-10.6796
om	-10.6797
▁www	-10.68
▁Philadelphia	-10.6801
▁spiritual	-10.6808
▁worship	-10.6813
▁Country	-10.6815
TH	-10.6818
▁citizen	-10.6828
▁55	-10.6831
▁Was	-10.6833
▁newly	-10.6833
▁potentially	-10.6836
▁peak	-10.6837
▁craft	-10.6839
▁Development	-10.684
▁resolution	-10.6841
cat	-10.6843
▁Radio	-10.6845
▁quarterback	-10.6846
Ba	-10.6848
▁Energy	-10.6852
▁Sweden	-10.6853
from	-10.6855
▁partly	-10.6855
▁breast	-10.6857
ets	-10.6858
▁Rep	-10.6861
ok	-10.6864
▁shadow	-10.6866
▁rank	-10.6866
▁fundamental	-10.6868
▁retail	-10.6872
▁DE	-10.6875
▁Ken	-10.6881
▁Gi	-10.6884
▁seasons	-10.6884
▁purposes	-10.6886
▁Family	-10.6892
▁Does	-10.6896
▁sons	-10.69
▁perspective	-10.6903
▁delay	-10.6908
▁Sub	-10.6914
▁Beach	-10.6914
▁Miami	-10.6917
▁Field	-10.6917
▁footballer	-10.6921
▁failing	-10.6926
▁Ocean	-10.6927
tis	-10.6929
▁Wi	-10.6931
book	-10.6932
▁teeth	-10.6934
most	-10.6935
▁2003	-10.6935
▁stayed	-10.6937
▁limits	-10.6937
▁Maria	-10.6938
▁1991	-10.6941
ising	-10.6942
▁passes	-10.6943
▁slavery	-10.6946
▁noble	-10.6946
92	-10.6946
▁tight	-10.6947
ax	-10.6951
▁regularly	-10.6951
▁emotional	-10.6954
▁43	-10.6957
ENT	-10.6958
▁Ve	-10.6962
▁practices	-10.6966
▁outcome	-10.6975
▁allegedly	-10.6976
▁burning	-10.698
▁bo	-10.6982
▁profile	-10.6988
▁Kevin	-10.7001
▁obtain	-10.7002
▁ob	-10.7012
ened	-10.7014
LY	-10.7014
▁concluded	-10.7015
cus	-10.7022
ag	-10.7022
▁extensive	-10.7023
▁involving	-10.7026
▁naturally	-10.703
▁AD	-10.7037
▁brilliant	-10.7039
▁1998	-10.7039
▁ethnic	-10.7045
▁euro	-10.7046
ement	-10.7047
▁beneath	-10.7048
▁mail	-10.7053
▁circle	-10.7058
▁FA	-10.706
elle	-10.7062
Pro	-10.7063
del	-10.7063
▁consideration	-10.7064
▁expand	-10.7067
▁1:	-10.7071
▁aim	-10.7077
▁Islands	-10.7079
was	-10.708
▁discussed	-10.7081
illa	-10.7081
▁expense	-10.7083
▁squad	-10.7084
▁dying	-10.7084
▁grace	-10.7085
tter	-10.7086
month	-10.7091
zz	-10.7091
▁collapse	-10.7094
dom	-10.7096
▁differences	-10.7098
ram	-10.7101
▁anger	-10.7102
▁seconds	-10.7102
Man	-10.7102
▁Microsoft	-10.7104
▁brings	-10.7107
▁deficit	-10.7112
▁Come	-10.7112
▁column	-10.7119
▁Alex	-10.7122
▁protected	-10.7125
▁plate	-10.7126
▁engineering	-10.7127
▁2017,	-10.7129
qua	-10.713
▁reduction	-10.713
▁expert	-10.7134
▁Columbia	-10.7135
▁expectations	-10.7136
sp	-10.7138
▁laughed	-10.7144
▁Kar	-10.7145
▁detail	-10.7146
▁examples	-10.7146
▁crown	-10.7148
▁publication	-10.7151
▁Mid	-10.7152
▁Harvey	-10.7155
▁Anthony	-10.7156
▁steam	-10.716
▁regulations	-10.716
▁Special	-10.7163
SE	-10.7165
▁competitive	-10.7172
▁buried	-10.7172
▁visible	-10.7172
▁Kate	-10.7174
▁continuing	-10.7179
rich	-10.7179
▁burden	-10.7183
▁Bishop	-10.7184
Î	-10.7185
▁pushing	-10.7185
▁rural	-10.7186
▁2001	-10.7187
▁Gov	-10.7189
just	-10.719
▁refuse	-10.7193
▁Back	-10.7193
▁headed	-10.7193
RE	-10.7195
▁finger	-10.7196
▁ignore	-10.7197
▁firms	-10.7198
▁signing	-10.7199
▁Arabia	-10.72
ash	-10.7201
cre	-10.7203
▁Er	-10.7209
▁Vol	-10.7211
▁1993	-10.7213
die	-10.7216
▁inches	-10.7216
▁unusual	-10.7216
hard	-10.7219
▁franchise	-10.7219
▁regardless	-10.7219
▁attractive	-10.7222
▁flu	-10.7222
▁CA	-10.7225
▁chances	-10.7227
▁Corporation	-10.7227
▁crazy	-10.7227
▁bow	-10.7232
▁dressed	-10.7236
▁ongoing	-10.7238
▁upset	-10.7241
▁enemies	-10.7241
▁fate	-10.7242
▁maximum	-10.7245
▁App	-10.7255
sk	-10.7259
▁unemployment	-10.726
▁forever	-10.7264
▁OK	-10.7264
eu	-10.7266
IS	-10.7268
▁friendly	-10.7268
▁Team	-10.7269
▁encourage	-10.727
▁contribute	-10.7276
▁Khan	-10.728
▁speaks	-10.7287
▁respectively	-10.7287
Ra	-10.7291
▁wore	-10.7292
▁pocket	-10.7293
▁mountains	-10.7294
▁resort	-10.7295
form	-10.7301
tus	-10.7302
▁solar	-10.7304
▁subjects	-10.7307
▁narrative	-10.7307
▁7.	-10.7309
▁ear	-10.7314
wi	-10.7314
▁badly	-10.7316
ru	-10.7318
▁thirty	-10.7322
▁prize	-10.7326
▁hero	-10.733
▁Line	-10.7332
▁Cook	-10.7333
▁Indians	-10.7336
▁Bu	-10.7336
▁moves	-10.7336
TA	-10.7345
▁extension	-10.7347
▁analyst	-10.735
▁distinct	-10.7354
▁moderate	-10.7357
▁headquarters	-10.7358
▁gap	-10.7358
▁Inter	-10.736
▁Jeff	-10.7364
▁behalf	-10.737
▁Phil	-10.737
bal	-10.7371
▁va	-10.7371
▁affair	-10.7376
▁Cu	-10.7376
▁loans	-10.7377
ple	-10.7379
▁ra	-10.7381
▁contrary	-10.7385
game	-10.7386
ira	-10.7388
▁elite	-10.739
▁reflect	-10.7391
▁Golden	-10.7395
▁abandoned	-10.7396
▁root	-10.7396
▁script	-10.7401
▁ho	-10.7402
non	-10.7407
▁j	-10.741
▁Stadium	-10.741
▁fool	-10.741
▁fraud	-10.7412
▁Centre	-10.7415
▁organized	-10.7417
▁minds	-10.7419
▁Ministry	-10.7422
din	-10.7423
▁Austria	-10.7424
mit	-10.7425
▁Iowa	-10.7425
gg	-10.743
▁Head	-10.743
place	-10.7433
▁Wal	-10.7437
▁forgotten	-10.7439
▁ON	-10.7439
▁library	-10.744
▁empire	-10.7445
ese	-10.7446
Reuters	-10.7447
▁bottle	-10.7448
▁£1	-10.7449
▁external	-10.7452
▁containing	-10.7452
▁studied	-10.7459
ight	-10.746
century	-10.7463
table	-10.7463
van	-10.7467
▁duties	-10.7467
▁referring	-10.7468
▁representation	-10.7468
▁happiness	-10.747
av	-10.7479
▁Ray	-10.7479
▁string	-10.748
▁keeps	-10.7484
▁intelligent	-10.7486
▁convinced	-10.7489
▁lunch	-10.7489
▁reaching	-10.749
▁lawsuit	-10.7491
▁addressed	-10.7491
how	-10.7493
▁nomination	-10.7493
▁Moscow	-10.7495
▁Age	-10.7496
▁amongst	-10.7496
▁careful	-10.75
▁trained	-10.7504
▁Would	-10.7505
▁farmers	-10.7507
▁exists	-10.751
▁export	-10.751
▁2012,	-10.7513
▁fortune	-10.7514
Our	-10.7514
1⁄2	-10.7514
▁exception	-10.7522
▁risks	-10.7523
98	-10.7527
▁allies	-10.7527
▁corrupt	-10.7531
▁VI	-10.7532
nie	-10.7537
▁(2	-10.7544
▁Fa	-10.7546
▁movies	-10.7547
▁consists	-10.7547
▁meal	-10.7547
At	-10.7549
6%	-10.755
▁Ya	-10.7551
▁nominee	-10.7551
▁discovery	-10.7555
▁literally	-10.7556
▁updates	-10.7556
▁handed	-10.7557
▁rooms	-10.7558
pan	-10.7561
▁awarded	-10.7562
hour	-10.7564
▁Pi	-10.7566
▁Nothing	-10.7566
▁arts	-10.7567
▁desert	-10.7567
▁concerning	-10.7568
▁clothing	-10.7573
pped	-10.7574
▁establish	-10.7577
▁universe	-10.7578
hal	-10.7578
Go	-10.7582
38	-10.7583
▁wheel	-10.7583
▁ALL	-10.7584
▁Oxford	-10.7584
▁payment	-10.7584
7%	-10.7587
▁matches	-10.759
▁universal	-10.759
▁output	-10.7592
▁reporter	-10.7604
▁progressive	-10.7605
▁formation	-10.7606
▁repeatedly	-10.7607
▁1997	-10.7613
▁urged	-10.7613
▁Ross	-10.7614
▁solutions	-10.7615
.[	-10.7622
▁liked	-10.7624
▁celebrated	-10.7626
AS	-10.7627
▁pen	-10.7628
▁constitutional	-10.7628
▁gentleman	-10.7631
▁guests	-10.7631
93	-10.7633
▁shoes	-10.7635
dal	-10.7639
▁execution	-10.7641
▁followers	-10.7644
▁profits	-10.7645
▁52	-10.7646
▁harder	-10.7648
▁DNA	-10.7649
▁Festival	-10.7654
▁Instagram	-10.7658
°	-10.7664
▁Trans	-10.7667
set	-10.7668
▁Ltd	-10.767
▁Kong	-10.7672
▁System	-10.7673
▁Han	-10.7677
zy	-10.7677
▁frequent	-10.7677
this	-10.7677
▁%	-10.7681
8%	-10.7682
▁pack	-10.7682
▁windows	-10.7682
▁Professor	-10.7683
▁pattern	-10.7684
▁bills	-10.7685
▁package	-10.7685
▁load	-10.7686
▁$6	-10.7686
▁entering	-10.7689
▁attached	-10.769
▁superior	-10.7694
▁il	-10.7695
Now	-10.7696
AM	-10.7697
▁demands	-10.7698
▁Network	-10.7698
▁Mail	-10.7704
ena	-10.7706
▁singing	-10.7708
▁gross	-10.771
▁lift	-10.7712
▁helps	-10.7713
▁Email	-10.7713
od	-10.7713
▁Follow	-10.7715
act	-10.7717
▁Therefore	-10.7724
▁BE	-10.7727
▁painting	-10.7727
las	-10.7728
▁MPs	-10.7736
.--_	-10.7737
▁schedule	-10.7737
▁covering	-10.7739
▁tri	-10.774
▁Com	-10.7743
▁shots	-10.7743
▁intention	-10.7745
pp	-10.7747
▁wanting	-10.7747
▁delivery	-10.7748
▁Jeremy	-10.7753
▁meetings	-10.7754
▁7,	-10.7754
NA	-10.7757
▁controversial	-10.7758
lum	-10.7758
▁Rights	-10.7761
▁Mont	-10.7762
comments	-10.7762
▁Project	-10.7765
▁embassy	-10.7768
▁payments	-10.7769
#	-10.777
▁basically	-10.7771
▁mu	-10.7771
▁Him	-10.7772
▁ladies	-10.7772
▁Anne	-10.7775
▁maintained	-10.7776
sta	-10.7779
▁whereas	-10.7781
▁horror	-10.7784
▁encouraged	-10.7787
▁click	-10.7788
▁commitment	-10.7788
ev	-10.7788
▁1989	-10.7795
▁liberals	-10.7797
▁succeed	-10.7799
▁privacy	-10.7802
▁marry	-10.7808
▁hits	-10.781
▁Never	-10.7815
▁demanded	-10.7819
New	-10.7819
▁lands	-10.782
▁SNP	-10.7825
▁essentially	-10.7826
▁mo	-10.7827
▁Allah	-10.7828
▁5,	-10.7828
▁employee	-10.7829
▁Victoria	-10.7832
▁relevant	-10.7833
▁Fund	-10.7836
▁remarks	-10.7836
lock	-10.7842
PA	-10.7844
▁terrorists	-10.7845
ack	-10.7846
▁twelve	-10.7848
▁phrase	-10.7848
▁lawyers	-10.7854
	-10.7861
▁Hong	-10.7867
▁fee	-10.7867
▁Ball	-10.7868
ju	-10.7869
▁clock	-10.7872
▁Library	-10.7876
▁Toronto	-10.7886
00	-10.7888
▁witness	-10.7889
▁Medical	-10.7889
▁Administration	-10.7892
▁sword	-10.7895
▁28,	-10.79
ON	-10.79
▁beside	-10.7901
▁festival	-10.7901
IC	-10.7901
▁Vietnam	-10.7903
dale	-10.7903
▁clients	-10.7906
▁recognition	-10.7912
▁Former	-10.7913
▁jury	-10.7914
vert	-10.7914
▁chicken	-10.7916
▁operate	-10.7917
▁Indeed	-10.7919
▁aimed	-10.7922
▁opera	-10.7923
▁nonsense	-10.7924
▁throwing	-10.7926
▁judges	-10.793
▁substance	-10.7933
▁arrive	-10.7934
▁march	-10.7935
▁remarkable	-10.7936
▁comedy	-10.7939
▁temperatures	-10.7941
▁socialist	-10.7941
▁colleagues	-10.7947
▁mile	-10.7948
▁Space	-10.795
▁Mount	-10.7953
▁Matthew	-10.7955
▁banned	-10.7958
▁proportion	-10.7958
Lo	-10.7959
▁tool	-10.7959
▁ST	-10.7959
world	-10.796
▁Conservative	-10.7962
▁producing	-10.7963
▁150	-10.7965
▁Gulf	-10.7966
▁hidden	-10.7966
▁purchased	-10.7967
▁hoped	-10.7967
▁discover	-10.7967
▁surrounded	-10.7968
▁2013,	-10.797
í	-10.7971
▁videos	-10.7972
▁boss	-10.7974
▁Hi	-10.7978
▁threats	-10.7979
▁ages	-10.7981
ough	-10.7985
▁Earl	-10.7986
▁habit	-10.7987
▁Ham	-10.799
▁museum	-10.7992
Not	-10.7995
onic	-10.7995
▁skill	-10.7999
▁supplies	-10.8
key	-10.8
▁gradually	-10.8003
▁convention	-10.8003
▁laughing	-10.8007
▁listening	-10.8015
▁dispute	-10.8015
▁hath	-10.8016
tle	-10.8018
▁Conference	-10.8022
▁1996	-10.8025
▁scenes	-10.8031
▁successfully	-10.8031
----------------	-10.8032
yr	-10.8035
▁Christianity	-10.8038
▁illness	-10.8038
▁estimates	-10.804
▁cabinet	-10.8042
▁striking	-10.8044
▁tie	-10.8048
▁advertising	-10.8048
▁realized	-10.8053
▁birthday	-10.8058
▁micro	-10.8059
ama	-10.8059
▁representative	-10.8061
▁Executive	-10.8061
▁bird	-10.8062
▁Unfortunately	-10.8062
▁fifty	-10.8067
▁collected	-10.8067
▁47	-10.8067
▁Ber	-10.8072
▁Light	-10.8073
▁Week	-10.8074
▁terrorism	-10.8075
,500	-10.8075
▁hired	-10.8075
▁Colorado	-10.8076
▁6.	-10.8078
▁logic	-10.808
▁uncle	-10.8082
▁settle	-10.8087
??	-10.8088
▁gains	-10.8088
Mr	-10.8088
▁Ki	-10.8089
▁association	-10.8091
▁opponents	-10.8094
▁8.	-10.8095
▁posts	-10.8095
▁DO	-10.8098
▁interior	-10.8099
▁symbol	-10.8099
ene	-10.81
▁messages	-10.8102
▁venture	-10.8103
▁64	-10.8104
▁remembered	-10.8108
▁bitter	-10.8108
▁ties	-10.811
▁personality	-10.8111
ale	-10.8112
▁LA	-10.8116
▁subsequent	-10.8122
▁Netherlands	-10.8122
▁Sky	-10.8124
▁tail	-10.8128
1%	-10.8128
▁keen	-10.8129
75	-10.8129
▁permission	-10.8136
▁flood	-10.8138
▁fiction	-10.8139
▁Dallas	-10.814
tte	-10.8141
▁ABC	-10.8144
▁fl	-10.8144
▁offense	-10.8147
9%	-10.8151
One	-10.8153
▁describes	-10.8159
▁Price	-10.816
▁emerged	-10.8161
▁Financial	-10.8164
▁derived	-10.8167
▁arguments	-10.8168
▁Min	-10.8168
▁pregnant	-10.8169
▁wars	-10.817
cast	-10.8171
▁ET	-10.8172
list	-10.8175
▁diplomatic	-10.8177
▁dare	-10.8185
news	-10.8187
▁medium	-10.8188
round	-10.8188
▁personnel	-10.8192
▁Agency	-10.8196
▁Ste	-10.8196
▁praise	-10.8202
Mar	-10.8202
kar	-10.8204
▁tape	-10.8204
▁ta	-10.8205
▁mar	-10.8208
▁Patrick	-10.8209
_)	-10.8209
▁electricity	-10.8211
▁vol	-10.8215
▁loud	-10.8218
▁marks	-10.8222
▁breakfast	-10.8222
AN	-10.8225
making	-10.8232
▁suspended	-10.8233
▁spite	-10.8234
▁Rev	-10.8234
▁Share	-10.8235
▁entrance	-10.8235
▁offices	-10.8237
▁Prize	-10.8238
▁Finally	-10.8239
▁oh	-10.824
▁rush	-10.8241
▁painter	-10.8244
▁dust	-10.8245
tur	-10.8246
▁Point	-10.8246
▁Hamilton	-10.8247
▁2015.	-10.8249
▁Defense	-10.8251
▁Whether	-10.8251
▁Disney	-10.8253
▁favourite	-10.8254
▁bin	-10.8261
gle	-10.8264
▁smooth	-10.8265
▁educated	-10.8266
▁End	-10.8274
ites	-10.8277
▁Anti	-10.8277
▁dating	-10.8279
▁seized	-10.828
▁Iranian	-10.828
▁pleasant	-10.8282
▁prayer	-10.8283
▁46	-10.8286
▁engage	-10.8287
▁po	-10.8289
▁format	-10.829
▁bonds	-10.8291
▁convicted	-10.8293
▁ease	-10.8298
▁Community	-10.8302
▁joining	-10.8307
▁creative	-10.8308
▁Anderson	-10.8308
▁400	-10.8308
▁oldest	-10.831
▁2014.	-10.8314
▁NEW	-10.8318
▁Illinois	-10.832
▁strip	-10.832
▁notion	-10.8322
▁earliest	-10.8324
get	-10.8325
ole	-10.8326
▁Web	-10.8326
▁bio	-10.8334
▁ignorant	-10.8335
▁warrant	-10.8335
▁proven	-10.8338
▁races	-10.8343
▁estimate	-10.8349
▁ro	-10.835
▁relationships	-10.835
▁falls	-10.8356
pur	-10.8358
▁Manhattan	-10.836
▁Oscar	-10.837
▁Master	-10.8377
▁fed	-10.8378
▁́	-10.8384
▁waters	-10.8388
▁assumed	-10.8393
cut	-10.8395
▁Vice	-10.8395
▁belong	-10.8396
▁amounts	-10.8397
▁kinds	-10.8397
▁lock	-10.8398
▁accompanied	-10.8399
▁genuine	-10.84
▁worthy	-10.8402
▁Detroit	-10.8402
▁Moore	-10.8402
ep	-10.8411
rin	-10.8413
▁representing	-10.8414
▁repeat	-10.8414
▁3-	-10.8414
▁Winter	-10.8417
▁protests	-10.8418
▁Cleveland	-10.8418
▁humanity	-10.8422
▁celebrate	-10.8424
rid	-10.8426
▁Rio	-10.8427
eau	-10.8429
▁prisoners	-10.843
-6	-10.8432
▁deny	-10.8435
▁servants	-10.8438
▁expanded	-10.8438
▁deck	-10.8439
▁Murray	-10.8442
▁reserved	-10.8442
▁Fla	-10.8445
oh	-10.8445
▁requirements	-10.8446
▁sharing	-10.8446
▁residence	-10.8447
▁registered	-10.8451
▁stretch	-10.8452
▁burn	-10.8452
▁recall	-10.8456
▁Sometimes	-10.8457
▁Roger	-10.846
▁waves	-10.8461
▁contemporary	-10.8463
▁Cambridge	-10.8465
▁2017.	-10.8471
▁indicated	-10.8478
▁Make	-10.8484
▁priest	-10.8485
▁indicate	-10.8486
▁paint	-10.8491
zo	-10.8502
uri	-10.8504
▁beliefs	-10.8505
where	-10.8506
▁landscape	-10.8506
▁tower	-10.8508
▁adds	-10.8509
▁emperor	-10.851
▁hadn	-10.8512
▁label	-10.8514
▁inhabitants	-10.8516
cra	-10.8517
▁temporary	-10.8517
▁Dick	-10.8526
▁grant	-10.8527
▁collect	-10.8529
▁aggressive	-10.853
▁silly	-10.853
▁category	-10.8535
▁regret	-10.8535
ó	-10.8535
▁depth	-10.8541
ware	-10.8543
▁confident	-10.8544
▁cream	-10.8544
▁pit	-10.8547
▁formula	-10.8549
▁pale	-10.855
put	-10.855
4%	-10.8553
▁Theatre	-10.8557
▁folk	-10.8564
▁Guard	-10.8566
▁abortion	-10.8569
ID	-10.8572
▁register	-10.8574
▁cook	-10.8576
Bo	-10.8577
▁churches	-10.8579
▁consent	-10.858
▁locations	-10.8581
▁landing	-10.8582
▁Hard	-10.8586
▁crossed	-10.8591
▁guest	-10.8596
▁Howard	-10.8596
▁treaty	-10.8599
▁11,	-10.86
▁introduction	-10.8601
▁fled	-10.8602
▁communications	-10.8605
▁serves	-10.8606
▁tackle	-10.8608
▁1930	-10.8609
▁tongue	-10.8609
▁Military	-10.861
▁51	-10.8613
▁throne	-10.8615
▁golden	-10.8617
ore	-10.8617
imp	-10.8617
▁Grant	-10.8618
▁enable	-10.8619
▁commit	-10.8619
▁Ann	-10.8619
▁Jose	-10.862
▁luxury	-10.8622
▁Plan	-10.8626
mark	-10.8634
▁banking	-10.8636
▁scoring	-10.864
▁depends	-10.8644
▁enormous	-10.8649
▁Convention	-10.865
ters	-10.865
TS	-10.8653
▁staying	-10.8653
ux	-10.8659
▁reader	-10.866
▁Bull	-10.8665
▁Walter	-10.8671
tan	-10.8672
▁Sarah	-10.8675
▁Za	-10.8678
▁consumption	-10.8678
¿	-10.8681
▁distant	-10.8682
▁consequence	-10.8684
▁beating	-10.8686
▁Tower	-10.8686
▁queen	-10.8694
▁accurate	-10.8695
ula	-10.8696
▁targets	-10.8697
▁2011,	-10.8704
▁disagree	-10.8706
▁Modern	-10.8707
▁YOU	-10.8713
▁occupation	-10.8714
▁gate	-10.8714
dic	-10.8719
▁electronic	-10.8728
▁liquid	-10.8728
▁$7	-10.8728
▁storage	-10.8732
▁Liberal	-10.8737
lay	-10.8737
cap	-10.8739
▁Brooklyn	-10.875
▁DC	-10.8751
level	-10.8753
avi	-10.8755
cu	-10.8756
▁Without	-10.8756
▁Children	-10.8756
▁suggesting	-10.8758
▁Play	-10.8761
▁para	-10.8761
▁Diego	-10.8763
ban	-10.8763
▁ears	-10.8763
ged	-10.8766
▁topic	-10.8766
▁Cape	-10.8768
▁departure	-10.8772
ken	-10.8773
▁Football	-10.8773
▁quoted	-10.8774
▁distinction	-10.8774
▁sur	-10.8777
▁stolen	-10.8782
▁Napoleon	-10.8786
ique	-10.8789
cri	-10.8792
▁tomorrow	-10.8792
BA	-10.8794
▁hence	-10.8796
▁architecture	-10.8797
▁crack	-10.8797
pl	-10.8801
▁ranked	-10.8802
▁printed	-10.8805
▁salary	-10.8811
▁intent	-10.8814
▁chapter	-10.8816
arch	-10.8817
▁invest	-10.8818
▁BY	-10.8819
▁rational	-10.8819
▁lake	-10.8824
▁sixth	-10.8825
shire	-10.8825
▁wished	-10.8828
ches	-10.8828
▁fingers	-10.883
▁curious	-10.883
▁pp	-10.8832
▁10-	-10.8833
▁grounds	-10.8836
▁lights	-10.8837
▁heading	-10.8838
▁mum	-10.8839
▁machines	-10.8841
▁Revolution	-10.8842
▁Again	-10.8844
▁influenced	-10.8844
▁Video	-10.8845
▁bike	-10.8846
new	-10.8846
▁literary	-10.8849
▁tonight	-10.885
▁championship	-10.885
xi	-10.8851
▁Swedish	-10.8853
▁electorate	-10.8855
▁experiences	-10.8855
ered	-10.8856
▁sanctions	-10.8858
▁suspected	-10.8858
▁performing	-10.8859
▁Labor	-10.886
▁normally	-10.8863
▁fame	-10.8863
▁visiting	-10.8865
▁courage	-10.8867
▁networks	-10.8871
▁processes	-10.8872
ign	-10.8876
▁tender	-10.8882
▁industries	-10.8883
▁Swiss	-10.8886
▁Gre	-10.8887
ture	-10.889
▁NATO	-10.8894
▁Jon	-10.8896
▁quit	-10.8896
UN	-10.8896
▁Way	-10.8897
▁popularity	-10.8897
▁Singapore	-10.8898
▁landed	-10.89
▁lifted	-10.8901
▁downtown	-10.8902
cur	-10.8906
▁2013.	-10.8906
mat	-10.8907
▁aged	-10.8908
▁occasionally	-10.8914
▁generations	-10.8916
▁Merkel	-10.892
▁Hotel	-10.892
sey	-10.8923
▁equity	-10.8924
▁recording	-10.8924
▁horrible	-10.8926
▁commander	-10.8927
▁widespread	-10.8928
▁slight	-10.8929
▁palace	-10.8931
▁movements	-10.8934
ration	-10.8937
▁tickets	-10.8939
▁lawmakers	-10.894
▁journalists	-10.8944
▁stadium	-10.8945
▁veteran	-10.8946
▁alliance	-10.8951
ington	-10.8954
▁telephone	-10.8955
zer	-10.8958
▁remote	-10.8958
▁occurs	-10.8961
▁6,	-10.8963
▁solve	-10.8963
▁presidency	-10.8963
▁Ly	-10.8965
▁Should	-10.8965
▁1988	-10.8966
▁tin	-10.8974
▁parking	-10.8975
▁complain	-10.8982
▁recommend	-10.8983
▁Norway	-10.8991
▁1979	-10.8994
ado	-10.8999
rt	-10.9003
▁vulnerable	-10.9003
▁extend	-10.9005
▁consistent	-10.9005
will	-10.9006
ew	-10.9006
aka	-10.9011
▁hanging	-10.9013
▁corn	-10.9015
▁aspect	-10.9017
▁license	-10.9019
▁Mother	-10.902
▁Crown	-10.9028
▁Brussels	-10.9031
▁Reagan	-10.9031
made	-10.9032
▁Page	-10.9034
▁divorce	-10.9037
eh	-10.904
▁Stock	-10.9041
▁cited	-10.9042
▁Vegas	-10.9042
▁composition	-10.905
▁Ram	-10.9054
▁interpretation	-10.9054
TER	-10.9055
▁inner	-10.9057
▁insisted	-10.9057
▁parallel	-10.906
▁besides	-10.906
including	-10.9062
▁Reserve	-10.9063
ö	-10.9064
▁letting	-10.9064
▁Walker	-10.9066
Footnote	-10.9071
▁overseas	-10.9072
▁translation	-10.9073
▁detailed	-10.9074
▁restaurants	-10.9075
▁Gordon	-10.9075
bin	-10.9077
▁extraordinary	-10.9077
▁Fi	-10.9078
mor	-10.9079
▁1984	-10.9081
related	-10.9082
gon	-10.9083
▁2019	-10.9085
▁yield	-10.9086
▁saving	-10.9087
▁smell	-10.9089
▁titles	-10.9092
lor	-10.9094
▁bull	-10.9095
▁engagement	-10.9098
▁recovered	-10.9098
▁acknowledged	-10.9099
▁prospect	-10.9099
▁railway	-10.91
▁sheep	-10.9102
▁impressive	-10.9103
▁barely	-10.9103
▁Palace	-10.9106
▁contracts	-10.9111
▁comp	-10.9112
▁Boy	-10.9117
▁attract	-10.9123
▁Food	-10.9126
▁dramatic	-10.9131
▁bench	-10.9132
RO	-10.9136
▁Germans	-10.9138
▁Rick	-10.9138
▁belt	-10.9139
sis	-10.9139
▁Main	-10.9142
▁ga	-10.9147
▁segment	-10.9147
wan	-10.9147
▁worker	-10.9147
▁generate	-10.9151
▁2010,	-10.9153
▁summit	-10.9154
▁hunting	-10.9154
▁factory	-10.9155
AT	-10.9156
▁Mad	-10.9165
▁lifestyle	-10.9168
rian	-10.9169
▁fe	-10.9171
▁Nu	-10.9173
▁altogether	-10.9175
▁visual	-10.9175
ü	-10.9177
▁Tar	-10.9178
▁notable	-10.9179
▁prince	-10.918
▁Cuba	-10.918
▁External	-10.9181
▁Six	-10.9182
▁flesh	-10.9183
▁improvement	-10.9185
Reporting	-10.9188
▁Mars	-10.919
ica	-10.9192
▁appreciate	-10.9197
▁viewed	-10.9197
▁gear	-10.9198
▁Ah	-10.9199
▁1940	-10.9199
page	-10.9203
ida	-10.9203
AR	-10.9203
▁trillion	-10.9204
▁devoted	-10.9205
▁pray	-10.9207
▁stepped	-10.921
▁1986	-10.9212
▁Harris	-10.9212
▁dates	-10.9215
▁Yeah	-10.9215
▁1,000	-10.9216
▁Giants	-10.9218
▁ownership	-10.922
▁der	-10.9221
-20	-10.9221
▁Carl	-10.9224
▁Mu	-10.9227
▁Atlanta	-10.9227
▁finds	-10.9227
yan	-10.9228
▁anniversary	-10.9229
▁institution	-10.923
LA	-10.9231
▁eggs	-10.9231
▁historian	-10.9231
▁Source	-10.9233
▁funeral	-10.9238
▁retain	-10.9238
▁2:	-10.9238
▁tu	-10.9239
his	-10.9241
▁coup	-10.9243
▁depend	-10.9243
bri	-10.9243
▁actors	-10.9246
▁vi	-10.9246
▁Albert	-10.9248
▁Channel	-10.9253
▁Egyptian	-10.9254
▁passenger	-10.9254
▁idiot	-10.9255
pers	-10.9255
▁rubbish	-10.9261
ä	-10.9264
▁propaganda	-10.9265
any	-10.9266
matic	-10.9267
ase	-10.927
▁instant	-10.9271
lands	-10.9271
▁Moon	-10.9273
▁Arts	-10.9273
▁intense	-10.9273
▁NBA	-10.9273
OS	-10.9274
ée	-10.9279
▁strict	-10.9282
▁bearing	-10.9283
▁crude	-10.9285
▁Ash	-10.9288
▁survived	-10.9289
▁compare	-10.929
▁expenses	-10.9299
▁Jason	-10.9301
och	-10.9305
ock	-10.9308
▁Minnesota	-10.931
▁CBS	-10.9313
▁healthcare	-10.9313
▁warming	-10.9313
-8	-10.9315
▁Cho	-10.9316
▁Ce	-10.932
IA	-10.9321
▁54	-10.9323
▁appointment	-10.9323
▁Total	-10.9325
▁exposure	-10.9327
▁participate	-10.9327
▁Maryland	-10.933
log	-10.9334
▁Del	-10.9342
▁servant	-10.9343
▁seed	-10.9344
ero	-10.9354
▁useless	-10.936
▁resident	-10.936
▁intervention	-10.9365
▁existed	-10.9367
▁introduce	-10.9367
▁mate	-10.9367
▁divine	-10.9368
og	-10.9368
▁shelter	-10.937
ERS	-10.937
RI	-10.9371
▁wishes	-10.9373
ify	-10.9374
▁managers	-10.9374
▁childhood	-10.9375
▁Camp	-10.9381
▁Championship	-10.9383
▁cheaper	-10.9384
ef	-10.9385
▁promises	-10.9386
▁tip	-10.9386
▁knee	-10.9387
good	-10.9387
▁backed	-10.9389
▁symptoms	-10.9395
▁vital	-10.9396
▁assist	-10.9398
▁branches	-10.9399
▁pursue	-10.94
ening	-10.9402
▁Marine	-10.9403
very	-10.9403
lam	-10.9405
▁Cap	-10.9406
▁answers	-10.9406
▁chamber	-10.9408
▁substantial	-10.9409
▁grade	-10.9411
▁hitting	-10.9412
▁Ze	-10.9415
▁instrument	-10.9416
▁Seattle	-10.9419
bre	-10.9419
▁explains	-10.942
▁strategic	-10.9421
▁winds	-10.9422
▁poly	-10.9428
▁preferred	-10.9428
▁bother	-10.9429
▁Libya	-10.9432
▁attacking	-10.9433
▁petition	-10.9434
ked	-10.9435
:--	-10.9436
week	-10.9436
EN	-10.9437
▁reducing	-10.9439
▁successor	-10.944
▁cents	-10.9442
▁controversy	-10.9442
▁Mag	-10.9448
▁Carter	-10.9448
▁(17	-10.9451
▁acknowledge	-10.9452
▁mortgage	-10.946
▁depending	-10.9465
▁2008,	-10.9466
▁cruel	-10.9468
▁featuring	-10.9468
ral	-10.947
▁$10	-10.9471
▁recalled	-10.9476
▁transportation	-10.948
▁Castle	-10.9483
▁1985	-10.9484
▁1975	-10.9485
▁Area	-10.9486
▁elect	-10.949
▁margin	-10.9493
▁replacement	-10.9493
dia	-10.9493
gin	-10.9494
▁op	-10.9494
▁burst	-10.9495
▁Bal	-10.9496
▁roles	-10.9503
▁gathering	-10.9511
▁recover	-10.9511
▁contributions	-10.9516
mmer	-10.9516
▁glory	-10.9518
▁exclaimed	-10.9519
▁Justin	-10.9519
▁trail	-10.9521
▁vain	-10.9521
CC	-10.9523
▁ranks	-10.9523
▁Attorney	-10.9526
▁fer	-10.9527
▁Jerusalem	-10.9527
▁evolution	-10.953
▁versions	-10.9532
▁Ron	-10.9537
▁Windows	-10.9539
▁weekly	-10.9543
▁Jane	-10.9552
▁roots	-10.9552
ien	-10.9559
▁Andy	-10.956
▁expedition	-10.9561
▁Madrid	-10.9564
▁burned	-10.9564
RA	-10.9566
▁bombing	-10.9568
▁pin	-10.9568
ston	-10.9572
▁Anyone	-10.9576
▁fancy	-10.958
▁sympathy	-10.9581
market	-10.9582
▁Down	-10.9584
▁battery	-10.9588
▁formerly	-10.9594
[=	-10.9596
▁8,	-10.96
▁Given	-10.9608
▁Story	-10.9618
▁holy	-10.9621
▁Cur	-10.9622
▁hospitals	-10.9627
▁1987	-10.9627
gra	-10.9628
▁gang	-10.9629
▁14,	-10.9629
▁mono	-10.963
▁2009,	-10.9632
▁complaint	-10.9634
take	-10.9635
▁pet	-10.9638
▁electoral	-10.964
▁drunk	-10.9642
▁districts	-10.9645
▁Getty	-10.9652
white	-10.9652
▁athletes	-10.9654
▁receiver	-10.9655
ō	-10.9657
▁nervous	-10.9657
▁Thanks	-10.9658
ona	-10.9658
ister	-10.9659
▁shell	-10.9664
▁trick	-10.9664
ates	-10.9664
ump	-10.9665
▁arch	-10.9666
▁el	-10.9668
Or	-10.9676
▁Clark	-10.9676
▁subsequently	-10.9677
▁nasty	-10.9677
▁Russell	-10.9677
▁generated	-10.9678
▁Hope	-10.9679
rant	-10.9679
nal	-10.9684
▁Technology	-10.9686
int	-10.9688
▁engineer	-10.9691
▁theatre	-10.9692
▁fears	-10.9694
▁strain	-10.9695
▁ni	-10.9695
▁sensitive	-10.9697
▁aspects	-10.9701
OT	-10.9702
▁choices	-10.9705
dan	-10.9705
▁1982	-10.9708
dar	-10.9708
▁lifetime	-10.9711
2)	-10.9712
▁strikes	-10.9712
▁Natural	-10.9713
▁ski	-10.9718
▁12,	-10.9718
▁valued	-10.9719
▁worn	-10.9721
▁predict	-10.9721
▁Tre	-10.9723
ST	-10.9723
lia	-10.9726
vent	-10.9727
▁client	-10.9729
▁valley	-10.973
▁deputy	-10.973
▁rape	-10.9732
▁friendship	-10.9733
▁legacy	-10.9733
▁daughters	-10.9733
▁covers	-10.9734
▁circuit	-10.9735
":	-10.9736
hood	-10.9737
▁Denmark	-10.9739
▁secondary	-10.9742
▁rec	-10.9746
▁liberty	-10.9746
▁Express	-10.9752
▁exhibition	-10.9753
▁tries	-10.9755
▁crossing	-10.9756
pper	-10.9759
such	-10.9761
high	-10.9763
▁hire	-10.9764
▁loving	-10.9767
Po	-10.9769
▁riding	-10.977
▁56	-10.977
left	-10.977
▁missile	-10.9776
▁beer	-10.9779
fire	-10.978
▁golf	-10.9781
▁NA	-10.9781
▁Iraqi	-10.9785
▁approached	-10.9786
▁representatives	-10.9787
----	-10.9791
▁Bruce	-10.9791
▁Portuguese	-10.9796
▁Graham	-10.9796
▁del	-10.9796
▁universities	-10.9797
▁su	-10.9808
▁defending	-10.9812
▁Leader	-10.9815
▁Gray	-10.9817
▁Editing	-10.9817
▁sc	-10.982
▁hearts	-10.982
pt	-10.9827
▁swing	-10.9827
▁encounter	-10.9833
looking	-10.9834
▁harsh	-10.9836
▁reveal	-10.9839
▁ratings	-10.9842
bank	-10.9843
DA	-10.9846
▁jumped	-10.9851
▁Five	-10.9852
▁quietly	-10.9852
▁Max	-10.9854
▁9,	-10.9858
▁painted	-10.9858
▁designer	-10.9862
▁steady	-10.9864
▁Wisconsin	-10.9864
▁une	-10.9865
▁hung	-10.9866
▁Bel	-10.9867
ug	-10.9868
▁Alabama	-10.9873
▁Jerry	-10.9874
ult	-10.9874
▁mill	-10.9876
uring	-10.9881
▁Sign	-10.9881
▁arranged	-10.9881
▁List	-10.9882
action	-10.9882
▁lol	-10.9882
MO	-10.9884
▁53	-10.9886
Let	-10.9887
▁vessel	-10.9889
▁Arm	-10.9891
tar	-10.9897
▁Switzerland	-10.9899
▁AS	-10.99
▁bedroom	-10.9901
▁disorder	-10.9901
shi	-10.9903
ill	-10.9904
Ar	-10.9904
ire	-10.9905
CO	-10.9906
▁utterly	-10.9906
▁assigned	-10.9907
▁gentle	-10.9909
mis	-10.991
▁stroke	-10.9919
▁Nigeria	-10.992
▁civilians	-10.9923
▁medal	-10.9928
ele	-10.9931
pet	-10.9932
▁classical	-10.9932
▁Besides	-10.9936
▁discipline	-10.9938
▁Hal	-10.9945
▁genius	-10.9946
▁Much	-10.9946
▁Being	-10.9949
▁efficient	-10.9949
▁opponent	-10.9951
~}	-10.9952
▁mood	-10.9953
▁sooner	-10.9956
▁Tax	-10.9956
▁racism	-10.9957
-10	-10.9959
▁li	-10.9965
▁partnership	-10.997
▁Sydney	-10.997
▁continent	-10.9972
▁performances	-10.9973
▁filing	-10.9978
▁damaged	-10.9979
▁desired	-10.9979
▁boats	-10.998
▁contribution	-10.9984
▁Sar	-10.9985
▁Economic	-10.9986
eo	-10.9987
box	-10.9988
▁bat	-10.999
▁delight	-10.999
▁spell	-10.9992
ois	-10.9993
▁reforms	-10.9994
▁Westminster	-10.9995
▁statistics	-10.9996
▁select	-10.9999
▁utter	-10.9999
▁Click	-10.9999
▁gotten	-11.0001
▁vessels	-11.0002
boy	-11.0004
▁sole	-11.0004
▁tribes	-11.0005
▁Ellen	-11.0012
hl	-11.0014
▁Lib	-11.0014
▁doctrine	-11.0015
▁preparing	-11.0016
UR	-11.0016
▁wound	-11.0017
▁touched	-11.0017
▁earthquake	-11.0023
▁hedge	-11.0023
▁crucial	-11.0023
▁phones	-11.0026
ré	-11.0027
▁Kentucky	-11.0027
▁whenever	-11.0029
▁surprising	-11.0029
TE	-11.0038
▁chat	-11.0038
▁structures	-11.004
▁racial	-11.0041
▁ignored	-11.0045
▁1972	-11.0045
ika	-11.0045
▁tested	-11.0048
Ho	-11.0051
▁darkness	-11.0051
▁scarcely	-11.0052
▁eu	-11.0057
AC	-11.0058
▁mainstream	-11.0062
far	-11.0063
▁switch	-11.0067
▁tracks	-11.0067
▁shops	-11.007
SP	-11.0071
▁united	-11.0073
▁refers	-11.0073
▁bold	-11.0074
▁organisation	-11.0075
Pa	-11.0075
▁57	-11.0076
▁rocks	-11.0077
▁sacrifice	-11.0077
ded	-11.0078
▁devil	-11.0082
Ex	-11.0083
▁priority	-11.0086
▁1976	-11.0091
▁rep	-11.0091
▁jet	-11.0091
chen	-11.0093
▁Nazi	-11.0093
word	-11.0095
fin	-11.01
▁secured	-11.0108
iff	-11.0118
▁wisdom	-11.0123
▁constructed	-11.0124
▁Peace	-11.0124
hole	-11.0126
ea	-11.0128
Ne	-11.0128
▁dans	-11.0129
▁consensus	-11.013
▁Organization	-11.0133
ography	-11.0136
range	-11.0136
▁Adams	-11.0137
▁NY	-11.014
▁thread	-11.014
uc	-11.0144
▁voter	-11.0146
▁politically	-11.0149
▁Stanley	-11.0152
▁Think	-11.0152
▁lesson	-11.0154
▁exciting	-11.0158
▁Hitler	-11.0158
▁techniques	-11.0159
▁poetry	-11.0163
two	-11.0163
▁dismissed	-11.0165
▁bail	-11.0166
▁log	-11.0174
▁Beijing	-11.0176
5%	-11.0177
▁dominated	-11.0179
▁waited	-11.0181
▁distinguished	-11.0182
▁Death	-11.0183
▁1920	-11.0185
CE	-11.0188
▁1983	-11.0188
▁compensation	-11.019
ison	-11.0191
▁attracted	-11.0192
▁rocket	-11.0192
▁Calif	-11.0194
▁Nobel	-11.0199
▁Cooper	-11.0199
fish	-11.0202
DS	-11.0203
ering	-11.0203
var	-11.0204
▁import	-11.0205
▁adopt	-11.0205
hy	-11.0209
▁Too	-11.021
▁steal	-11.0211
▁Lawrence	-11.0211
▁rely	-11.0211
real	-11.0214
itude	-11.0214
▁Class	-11.0215
▁fatal	-11.0216
▁puts	-11.0221
▁upcoming	-11.0221
▁Russians	-11.0225
▁permitted	-11.0227
▁Station	-11.0227
▁Treasury	-11.023
care	-11.0232
▁lit	-11.0233
▁fo	-11.0237
▁bare	-11.0238
▁virtually	-11.0241
▁Baltimore	-11.0242
▁traded	-11.0243
▁YouTube	-11.0246
▁1968	-11.0247
▁2018.	-11.0251
	-11.0256
▁sacred	-11.0256
▁Hurricane	-11.0258
Un	-11.0259
ular	-11.0259
▁bath	-11.026
▁threatening	-11.0262
tern	-11.0262
▁suspicion	-11.0263
EL	-11.0264
▁inspiration	-11.027
-0	-11.0271
ora	-11.0273
▁concentration	-11.0274
▁Paper	-11.028
une	-11.0281
▁smoking	-11.0281
▁fond	-11.0282
▁30,	-11.0283
▁separated	-11.0285
burn	-11.0286
▁emails	-11.0287
ati	-11.0287
▁disabled	-11.0288
▁junior	-11.0291
▁necessity	-11.0291
▁Very	-11.0292
▁fishing	-11.0292
bble	-11.0298
▁Missouri	-11.03
▁Austrian	-11.03
away	-11.0301
ei	-11.0301
▁locked	-11.0303
▁genetic	-11.0303
▁parade	-11.0305
▁unions	-11.0309
MS	-11.0309
See	-11.0313
▁incredible	-11.0314
uv	-11.0314
▁wider	-11.0315
gram	-11.0316
▁wire	-11.0319
▁babies	-11.0319
▁complicated	-11.0321
▁Warren	-11.0321
▁1973	-11.0322
▁journal	-11.0324
▁pointing	-11.0327
▁bra	-11.0328
▁conspiracy	-11.0328
▁clever	-11.0331
▁orbit	-11.0333
uer	-11.0333
▁anxiety	-11.0335
▁pa	-11.0336
▁Welsh	-11.0338
▁1981	-11.0339
▁authors	-11.0339
Sa	-11.034
▁perceived	-11.034
▁executed	-11.034
ova	-11.0341
Then	-11.0342
maker	-11.0342
▁subscribe	-11.0345
EC	-11.0345
▁Indiana	-11.0346
▁Pu	-11.0347
▁assessment	-11.0347
▁cheese	-11.0347
▁{~	-11.0347
▁preserve	-11.0348
▁emissions	-11.0351
▁sovereign	-11.0352
rus	-11.0354
▁generous	-11.0357
▁rebels	-11.0358
▁acted	-11.0363
vers	-11.0364
▁exports	-11.0367
mas	-11.0372
▁Oklahoma	-11.0373
▁Spring	-11.0375
ib	-11.0379
▁Count	-11.038
▁Low	-11.0381
▁guarantee	-11.0383
▁ver	-11.0383
ert	-11.0384
▁Pra	-11.0385
▁restrictions	-11.0385
▁Yo	-11.0386
▁counsel	-11.0387
▁seventh	-11.0388
iest	-11.0389
▁recommended	-11.039
▁29,	-11.0393
▁bloody	-11.0395
▁19,	-11.0397
▁disappeared	-11.04
▁reward	-11.0401
▁objective	-11.0401
▁1945	-11.0403
ME	-11.0403
stein	-11.0403
lt	-11.0404
▁faint	-11.0405
mus	-11.0409
▁Charlie	-11.0412
▁Alan	-11.0415
enberg	-11.0415
clock	-11.042
▁Care	-11.0424
▁Douglas	-11.0425
.......	-11.0426
▁posting	-11.0429
▁converted	-11.0429
▁Orleans	-11.043
▁reverse	-11.0437
▁($	-11.0437
lot	-11.0437
py	-11.0438
cious	-11.0441
unt	-11.0442
five	-11.0445
▁flights	-11.0449
▁ignorance	-11.0449
▁knife	-11.0449
-7	-11.0451
▁forty	-11.0456
its	-11.0458
▁struggled	-11.0458
▁depression	-11.0464
▁forcing	-11.0465
▁Christopher	-11.0465
▁Key	-11.0467
▁fossil	-11.047
▁hatred	-11.0474
▁monthly	-11.0475
▁23,	-11.0475
▁Bor	-11.0476
▁cur	-11.0476
▁Gri	-11.0476
–18	-11.0478
ima	-11.048
▁ch	-11.048
▁Until	-11.0484
Car	-11.0485
▁flash	-11.0486
▁Through	-11.0488
▁assured	-11.0488
▁9.	-11.0489
▁protesters	-11.0491
▁consistently	-11.0492
▁fur	-11.05
SC	-11.0508
!”	-11.0508
▁tennis	-11.0509
▁Frederick	-11.051
▁cameras	-11.0513
ello	-11.0514
▁Hay	-11.0514
▁classified	-11.0516
▁PR	-11.0516
▁Persian	-11.0516
▁1974	-11.0516
▁hills	-11.0517
▁emerging	-11.0521
scale	-11.0522
▁ba	-11.0523
▁magic	-11.0524
nk	-11.0525
................	-11.0525
▁attempting	-11.0525
rat	-11.0527
▁Portugal	-11.053
▁Third	-11.053
▁celebrity	-11.0532
▁58	-11.0533
bert	-11.0533
ction	-11.0533
▁valid	-11.0537
è	-11.0541
▁Information	-11.0541
tch	-11.0542
▁profession	-11.0544
▁Jonathan	-11.0544
▁regulation	-11.0545
▁tribute	-11.0545
▁sequence	-11.0551
▁Anna	-11.0552
▁employers	-11.0553
▁Den	-11.0553
▁Trust	-11.0554
▁repair	-11.0555
▁Silver	-11.0557
▁24,	-11.0559
▁clue	-11.0563
▁manufacturers	-11.0563
▁clip	-11.0564
▁Mississippi	-11.0564
▁computers	-11.0565
bon	-11.0568
▁tragedy	-11.0569
▁oppose	-11.0569
oli	-11.057
▁13,	-11.0572
▁targeted	-11.0573
▁updated	-11.0574
▁glance	-11.0574
▁imposed	-11.0575
wer	-11.0575
▁corporations	-11.0579
aire	-11.0581
▁Ci	-11.0584
▁savings	-11.0585
▁rap	-11.0589
▁mon	-11.0591
▁MORE	-11.0594
▁questioned	-11.0594
▁layer	-11.0595
▁Colonel	-11.0598
fall	-11.0599
▁SP	-11.0602
▁crap	-11.061
▁evident	-11.0611
▁Sh	-11.0612
▁escaped	-11.0617
ition	-11.0618
▁fantastic	-11.0619
cc	-11.0621
▁Ser	-11.0623
▁qualified	-11.0624
▁scenario	-11.0624
▁difficulties	-11.0627
▁Remember	-11.0628
▁Tell	-11.0628
rated	-11.0629
▁weird	-11.0631
▁dumb	-11.0632
▁confused	-11.0633
▁relatives	-11.0636
▁Harper	-11.0638
▁31,	-11.0641
▁random	-11.0643
▁km	-11.0646
▁gods	-11.065
▁scholars	-11.0653
▁66	-11.0654
ude	-11.0654
▁accomplished	-11.0654
press	-11.0662
master	-11.0662
▁triumph	-11.0662
▁bore	-11.0663
▁Hunt	-11.0663
▁legitimate	-11.0665
▁Hor	-11.0668
▁Thompson	-11.0668
▁10%	-11.0669
▁disappointed	-11.067
▁tune	-11.0671
▁mistakes	-11.0673
ls	-11.0674
▁Treaty	-11.0674
▁funded	-11.0675
▁raw	-11.0675
▁castle	-11.0675
▁divide	-11.0676
▁operated	-11.0679
▁27,	-11.0679
hold	-11.0681
▁pathetic	-11.0682
▁Add	-11.0683
▁18,	-11.0685
▁shake	-11.0685
▁Communist	-11.0686
▁investments	-11.0686
bus	-11.0687
-18	-11.069
-9	-11.0692
▁Exchange	-11.0692
east	-11.0694
▁imagination	-11.0695
▁Oil	-11.0697
▁Tan	-11.0698
▁viewers	-11.0698
▁Stewart	-11.0704
▁Char	-11.0708
▁recession	-11.0708
▁update	-11.0709
▁engines	-11.071
rous	-11.0711
▁ministers	-11.0711
▁Samuel	-11.0712
▁instruments	-11.0713
▁dirty	-11.0714
▁CON	-11.0715
▁Unlike	-11.0716
▁criticized	-11.0716
▁bars	-11.0717
IM	-11.0721
▁Perry	-11.0722
▁Local	-11.0722
▁hosts	-11.0725
▁monitor	-11.0725
▁ME	-11.0726
▁arrangement	-11.073
▁Tennessee	-11.0731
▁custody	-11.0731
▁satisfied	-11.0733
cept	-11.0737
▁$8	-11.0737
▁Article	-11.0738
ied	-11.0738
only	-11.0738
▁grateful	-11.074
▁breaks	-11.0741
mal	-11.0742
▁Mur	-11.0742
▁ballot	-11.0743
▁Summer	-11.0744
▁cattle	-11.0747
▁Ted	-11.0752
▁programming	-11.0753
▁signature	-11.0754
▁newspapers	-11.0755
ency	-11.0755
▁chest	-11.0756
play	-11.0757
▁virtue	-11.0758
▁egg	-11.0763
▁theories	-11.0765
▁dé	-11.077
▁lessons	-11.0774
▁conventional	-11.0776
▁wa	-11.0777
▁fence	-11.0782
▁Cro	-11.0783
▁2012.	-11.0783
▁conviction	-11.0784
▁Hol	-11.0787
▁mining	-11.0787
▁stranger	-11.0788
▁naked	-11.0788
▁Tro	-11.079
▁expecting	-11.0791
▁Lin	-11.0798
▁Argentina	-11.08
▁measured	-11.0801
▁mild	-11.0807
try	-11.0811
▁investigating	-11.0817
tics	-11.0818
▁butter	-11.0821
▁Mus	-11.0822
▁exclusive	-11.0823
▁Ac	-11.0826
▁z	-11.0826
▁Mountain	-11.0827
▁cousin	-11.0827
▁sail	-11.0828
▁mirror	-11.0829
▁deadly	-11.0832
▁72	-11.0839
▁loyal	-11.0841
ook	-11.0842
OL	-11.0843
▁Princess	-11.0845
▁hip	-11.0845
▁sees	-11.0846
ila	-11.0847
▁Left	-11.0848
pot	-11.085
▁conservatives	-11.0854
▁bell	-11.0854
▁tear	-11.0856
▁pretend	-11.0856
▁managing	-11.0859
▁temple	-11.0859
▁migration	-11.086
▁Protestant	-11.086
▁involves	-11.0862
▁euros	-11.0862
aki	-11.0863
▁Antonio	-11.0863
say	-11.0865
▁Dun	-11.0867
▁frequency	-11.087
▁SO	-11.0873
▁dozens	-11.0877
▁educational	-11.088
▁button	-11.0881
▁routine	-11.0884
▁scared	-11.0886
▁Margaret	-11.0888
▁crystal	-11.0889
▁tale	-11.0894
▁shoulders	-11.0894
▁testimony	-11.0894
▁dreams	-11.0895
▁tank	-11.0902
LO	-11.0903
▁compromise	-11.0903
▁Win	-11.0903
▁Harvard	-11.0904
▁Memorial	-11.0904
▁Stra	-11.0905
Just	-11.0906
▁diverse	-11.091
▁copies	-11.091
▁Mas	-11.0911
▁improving	-11.0914
▁1967	-11.0915
▁documentary	-11.0916
elli	-11.0916
▁racing	-11.0919
▁mini	-11.092
▁Afghan	-11.0924
▁Sur	-11.0924
▁68	-11.0925
▁activist	-11.0925
▁62	-11.0925
minute	-11.0932
▁Ye	-11.0935
▁Broadway	-11.0936
▁59	-11.0936
▁technique	-11.0938
▁sauce	-11.0939
▁Kardashian	-11.0939
▁awards	-11.094
▁beaten	-11.094
▁NASA	-11.0942
▁Bad	-11.0942
▁Test	-11.0944
▁periods	-11.0945
ending	-11.0945
▁organic	-11.0947
▁speculation	-11.0947
▁producers	-11.0947
▁reception	-11.0951
";	-11.0956
▁fighters	-11.0958
▁Dor	-11.0958
▁22,	-11.0959
pen	-11.0959
▁retreat	-11.096
▁peculiar	-11.0961
▁slip	-11.0963
ami	-11.0966
bat	-11.0966
▁1978	-11.0967
▁acceptable	-11.0968
ku	-11.0968
▁Plus	-11.0969
ros	-11.097
▁comic	-11.0971
▁Nation	-11.0972
▁Bureau	-11.0975
▁gray	-11.0976
▁billions	-11.0976
▁100%	-11.0977
▁cares	-11.098
ulation	-11.0983
▁precious	-11.0985
cia	-11.0986
▁bishop	-11.0987
▁overcome	-11.0991
▁maintenance	-11.0992
Who	-11.0995
▁speaker	-11.0995
▁voices	-11.0996
▁quote	-11.0997
▁Gary	-11.1001
▁Mil	-11.1002
▁carriage	-11.1002
ching	-11.1005
▁Surely	-11.1005
▁Mill	-11.1006
▁com	-11.1007
vy	-11.1009
nis	-11.101
▁grey	-11.1013
▁occasions	-11.1014
▁connect	-11.1015
▁Palestinian	-11.1015
▁cheer	-11.1016
▁bowl	-11.1016
▁hockey	-11.1017
▁involvement	-11.1018
▁1969	-11.1027
;–	-11.1031
▁firing	-11.1033
ii	-11.1037
▁shirt	-11.1037
▁romantic	-11.104
▁scores	-11.1043
Image	-11.1043
gun	-11.1046
▁Assad	-11.1046
▁Garden	-11.1046
▁theme	-11.1047
▁situations	-11.1047
▁Building	-11.1049
▁Oregon	-11.105
mont	-11.105
▁demanding	-11.1051
▁components	-11.1052
▁ruin	-11.1053
▁eager	-11.1056
▁physician	-11.1056
▁predicted	-11.1057
▁explosion	-11.1057
▁equality	-11.106
▁deeper	-11.106
▁transaction	-11.1064
▁Gro	-11.1064
ste	-11.1069
▁angle	-11.107
atory	-11.107
▁input	-11.1071
▁loves	-11.1072
▁justify	-11.1072
▁Ty	-11.1072
▁BA	-11.1074
▁mat	-11.1075
▁pub	-11.1076
▁Sorry	-11.1078
▁poem	-11.1083
▁confusion	-11.1088
▁spokeswoman	-11.1093
▁pi	-11.1099
▁....	-11.1099
than	-11.11
▁creature	-11.1103
▁climb	-11.1103
▁gather	-11.1103
▁nurse	-11.1106
▁Tra	-11.1109
▁Barry	-11.111
▁Sta	-11.1111
▁hunt	-11.1111
elect	-11.1112
St	-11.1115
▁dated	-11.1121
▁anxious	-11.1123
▁AL	-11.1126
struct	-11.1126
▁carrier	-11.113
cing	-11.113
▁Control	-11.1133
▁episodes	-11.1137
cer	-11.1138
ect	-11.1144
▁consecutive	-11.1146
▁belonging	-11.1147
▁possess	-11.1149
worth	-11.1149
▁emphasis	-11.1151
▁bone	-11.1151
▁vous	-11.1153
▁veterans	-11.1154
▁rolling	-11.1157
▁pipeline	-11.1158
dra	-11.116
▁supporter	-11.1163
▁sensible	-11.1164
▁dignity	-11.1164
iel	-11.1165
▁Name	-11.1169
▁marijuana	-11.1172
▁throat	-11.1173
▁Song	-11.1174
owned	-11.1182
▁activists	-11.1184
▁resolved	-11.1184
▁Barcelona	-11.1185
▁observation	-11.1191
▁Forest	-11.1195
▁dependent	-11.1197
▁trash	-11.1198
▁dancing	-11.1198
▁auction	-11.1199
▁restored	-11.12
▁Leave	-11.1203
▁Officer	-11.1204
then	-11.1204
▁pays	-11.121
had	-11.1212
▁é	-11.1212
▁Temple	-11.1214
▁observe	-11.1214
▁implement	-11.1214
▁Belgium	-11.122
▁Des	-11.1221
esh	-11.1221
bling	-11.1223
▁compound	-11.1225
▁fifteen	-11.1226
via	-11.1227
▁download	-11.1229
▁executives	-11.123
▁peaceful	-11.123
▁foul	-11.1234
SON	-11.1234
▁dominant	-11.1236
IP	-11.1238
▁homeless	-11.1239
▁theater	-11.124
▁comprehensive	-11.1241
▁influential	-11.1241
▁Brand	-11.1241
gh	-11.1244
▁cooking	-11.1244
▁pal	-11.1247
▁Note	-11.1247
▁Nature	-11.1248
▁stability	-11.1249
cip	-11.125
nate	-11.125
▁dim	-11.125
▁investigate	-11.1251
▁concrete	-11.1251
▁sentiment	-11.1255
▁satellite	-11.1256
▁agricultural	-11.1257
▁wi	-11.126
▁legislative	-11.1262
▁ok	-11.1264
▁portfolio	-11.1267
▁legend	-11.1268
cker	-11.127
▁Gal	-11.127
▁elderly	-11.1276
▁promotion	-11.1276
▁handling	-11.1277
ander	-11.1279
kh	-11.1283
▁wondering	-11.1283
▁View	-11.1284
▁1964	-11.1285
bn	-11.1286
▁MS	-11.1287
▁min	-11.1288
▁Hungary	-11.1288
▁legally	-11.1289
▁momentum	-11.129
▁confirm	-11.1291
▁sheet	-11.1294
▁brick	-11.1294
▁mandate	-11.1295
hill	-11.1296
lit	-11.1298
name	-11.1298
▁taxpayers	-11.1303
▁excitement	-11.1303
▁findings	-11.1304
▁leap	-11.1306
▁protecting	-11.1307
▁civilian	-11.1308
▁asset	-11.1308
wed	-11.1317
cro	-11.1317
nny	-11.1319
▁domain	-11.1321
▁steep	-11.1321
▁companion	-11.1322
▁Tech	-11.1324
piece	-11.1324
▁Bon	-11.1326
▁bags	-11.1327
▁trains	-11.1327
▁invented	-11.1328
media	-11.133
▁girlfriend	-11.1332
▁Affairs	-11.1332
▁Fo	-11.1334
▁Bla	-11.1335
▁Op	-11.1335
ATE	-11.1336
band	-11.1338
▁counts	-11.134
NC	-11.1345
power	-11.1345
▁cro	-11.1345
▁67	-11.1346
▁cloth	-11.135
▁suitable	-11.1351
nn	-11.1354
ics	-11.1355
▁Tor	-11.1355
▁supports	-11.1355
four	-11.136
▁rebel	-11.1361
▁Stop	-11.1362
▁picking	-11.1362
▁modest	-11.1365
▁Evans	-11.1371
▁designs	-11.1372
©	-11.1374
▁Bru	-11.1376
rum	-11.1376
▁lord	-11.1376
▁portrait	-11.1377
▁Commissioner	-11.1378
▁convert	-11.1378
▁Villa	-11.1379
lee	-11.1383
▁HE	-11.1384
▁10,	-11.1386
▁Brazilian	-11.1386
bor	-11.1389
▁Others	-11.1389
▁Mah	-11.1389
Ta	-11.139
▁charm	-11.1393
▁pursuit	-11.1394
▁1977	-11.1395
nu	-11.1396
▁sentenced	-11.1397
▁ultimate	-11.1399
▁pur	-11.1406
▁conscience	-11.1408
▁Work	-11.1409
▁permit	-11.1413
ili	-11.1415
nor	-11.1416
▁gonna	-11.1418
▁graduate	-11.142
▁Ob	-11.1422
▁assembly	-11.1423
John	-11.1426
▁bias	-11.1426
ā	-11.1433
▁handful	-11.1433
▁memories	-11.1434
▁mask	-11.1434
▁Common	-11.1435
▁Gun	-11.1435
▁complaints	-11.1435
▁Actually	-11.1436
▁asylum	-11.1439
▁incidents	-11.1441
▁usage	-11.1442
▁Norman	-11.1442
▁Political	-11.1442
▁pity	-11.1449
?!	-11.1449
▁suggestion	-11.1452
eur	-11.1452
▁demonstrated	-11.1454
▁embrace	-11.1457
▁Ukrainian	-11.1457
▁Dean	-11.1457
VI	-11.1458
▁Hand	-11.146
▁participants	-11.146
▁Hart	-11.1462
500	-11.1463
election	-11.147
▁crying	-11.147
Na	-11.147
▁neutral	-11.1471
▁fantasy	-11.1473
▁2007,	-11.1475
▁crop	-11.1476
▁mystery	-11.1478
▁carries	-11.148
lis	-11.1481
▁guitar	-11.1482
???	-11.1483
▁sisters	-11.1485
▁convince	-11.1486
▁transferred	-11.1487
▁involve	-11.1487
▁versus	-11.1492
▁sample	-11.1492
▁footage	-11.1496
▁Sand	-11.1502
▁Tea	-11.1504
▁Robinson	-11.1506
▁drag	-11.1506
▁Nelson	-11.1508
▁dropping	-11.1509
human	-11.1515
▁Ave	-11.1516
▁advised	-11.1516
▁26,	-11.1517
▁copper	-11.1518
▁pope	-11.1521
▁therapy	-11.1528
▁stones	-11.153
▁Election	-11.1533
▁ministry	-11.1534
▁attributed	-11.1536
▁Louisiana	-11.1537
eries	-11.1538
▁Ger	-11.1539
Of	-11.1539
▁REUTERS	-11.1539
▁stages	-11.1542
after	-11.1542
▁Spirit	-11.1545
bound	-11.1545
▁displayed	-11.1545
▁Related	-11.1545
▁Morris	-11.1545
▁Credit	-11.1547
▁vacation	-11.1547
oma	-11.1548
pat	-11.1548
▁painful	-11.1549
half	-11.1555
▁investigators	-11.1556
▁solo	-11.1556
▁1971	-11.1559
▁naval	-11.1561
UT	-11.1563
ean	-11.1564
▁flower	-11.1567
▁Everyone	-11.157
▁unclear	-11.1571
▁Farage	-11.1574
met	-11.1579
inch	-11.1583
▁instructions	-11.1584
arian	-11.1587
cor	-11.1589
▁midst	-11.159
▁Hy	-11.159
▁alert	-11.1592
▁Small	-11.1593
▁installed	-11.1596
▁Osborne	-11.1598
ico	-11.16
▁21,	-11.1602
▁Bond	-11.1604
▁Moreover	-11.1606
▁PA	-11.1607
▁beloved	-11.1608
has	-11.1609
▁Ontario	-11.1611
▁seal	-11.1614
wel	-11.1618
▁Julian	-11.162
▁precisely	-11.1621
▁Yu	-11.1621
▁Dam	-11.1622
▁Jimmy	-11.1626
wick	-11.1627
▁deserves	-11.1628
ched	-11.1635
▁smiling	-11.1635
▁handsome	-11.1636
tim	-11.1636
▁agriculture	-11.1638
▁Rubio	-11.1638
▁desk	-11.164
▁(3	-11.1642
tta	-11.1642
nar	-11.1642
▁promoting	-11.1643
▁rice	-11.1644
▁restore	-11.1647
▁briefly	-11.1647
▁mechanical	-11.1647
▁gu	-11.165
▁Hindu	-11.1652
▁Indonesia	-11.1652
▁challenging	-11.1654
▁grief	-11.1654
▁deemed	-11.1654
vel	-11.1654
rac	-11.1654
▁announce	-11.1654
▁orange	-11.1656
ben	-11.1659
▁Madame	-11.1659
▁breach	-11.166
▁counties	-11.1662
▁bent	-11.1664
▁bust	-11.1666
▁murdered	-11.1667
▁bones	-11.1667
▁camps	-11.1668
▁hosted	-11.1668
▁attending	-11.1669
▁Gas	-11.167
▁Billy	-11.1672
▁wooden	-11.1673
▁colors	-11.1673
1⁄4	-11.1673
▁perception	-11.1674
▁Wright	-11.1675
▁hiding	-11.1683
▁Caesar	-11.1686
▁Data	-11.1688
▁tap	-11.1695
▁spare	-11.1701
▁Band	-11.1701
▁Sheriff	-11.1702
ame	-11.1708
▁everyday	-11.1708
▁administrative	-11.1708
▁idiots	-11.1708
▁technologies	-11.1716
▁critic	-11.1717
▁woods	-11.172
date	-11.1721
quarter	-11.1723
▁bulk	-11.1727
▁nowhere	-11.1731
▁forming	-11.1732
▁distributed	-11.1734
▁25,	-11.1736
when	-11.1736
▁celebration	-11.1738
bridge	-11.174
▁pile	-11.1741
▁reflected	-11.1743
▁cease	-11.1744
▁interviews	-11.1745
▁terminal	-11.1746
▁collective	-11.1747
▁stating	-11.175
Sidenote	-11.1751
▁openly	-11.1752
sur	-11.1754
▁McC	-11.176
▁forgot	-11.1762
▁GM	-11.1764
▁dish	-11.1767
▁pink	-11.177
▁63	-11.1772
itz	-11.1776
about	-11.1777
mile	-11.1777
▁rugby	-11.1779
▁cave	-11.1779
▁Copyright	-11.178
▁resist	-11.1782
ars	-11.1791
▁knock	-11.1791
▁WE	-11.1791
als	-11.1795
General	-11.1797
▁chill	-11.1798
▁thoroughly	-11.1798
▁Pay	-11.1799
read	-11.1804
▁obliged	-11.1806
▁Pass	-11.1807
▁scrap	-11.1807
▁Ag	-11.1808
▁flew	-11.1808
▁Place	-11.1809
▁SE	-11.181
▁virus	-11.1813
▁toilet	-11.1814
▁reject	-11.1814
▁Gil	-11.1815
▁characteristic	-11.1815
ain	-11.1816
▁rude	-11.1816
uz	-11.1817
▁rolled	-11.1818
▁shocked	-11.1821
▁Alaska	-11.1821
▁audio	-11.1824
ators	-11.1824
▁Cra	-11.1829
▁channels	-11.1829
▁bands	-11.183
▁Danish	-11.1833
cell	-11.1834
other	-11.1835
▁affection	-11.1835
▁procedure	-11.1838
▁bon	-11.1838
▁cake	-11.1838
▁breed	-11.1841
chin	-11.1844
▁shit	-11.1846
boat	-11.1846
▁20,	-11.1848
mond	-11.1849
▁CL	-11.1855
▁Start	-11.1857
▁1965	-11.1861
▁kicked	-11.1864
▁Juan	-11.1865
▁Czech	-11.1866
tie	-11.1868
▁mi	-11.1869
▁diseases	-11.1871
lig	-11.1872
▁Utah	-11.1874
▁tactics	-11.1874
▁neighbors	-11.1875
mic	-11.1875
▁odds	-11.1876
▁prop	-11.1877
▁impressed	-11.1879
▁ads	-11.188
▁boot	-11.1884
▁proposals	-11.1884
People	-11.1885
pon	-11.1886
yne	-11.1886
El	-11.1888
morrow	-11.1888
▁employ	-11.189
▁Baker	-11.1891
▁divisions	-11.1893
▁Lar	-11.1894
ld	-11.1898
▁arguing	-11.1899
▁Connecticut	-11.1904
▁ambassador	-11.1904
▁inbox	-11.1905
▁Ph	-11.1906
▁Liberals	-11.1907
▁resolve	-11.1908
▁transmission	-11.1913
▁adapt	-11.1914
▁Auto	-11.1916
▁encouraging	-11.1918
▁memorial	-11.1918
▁maker	-11.1918
▁electrical	-11.1921
▁Wars	-11.1921
▁genre	-11.1923
▁disgusting	-11.1924
▁rushed	-11.1924
▁listened	-11.1927
▁examination	-11.1928
▁blast	-11.1932
▁reflection	-11.1933
▁Standard	-11.1934
▁transform	-11.1935
nut	-11.1936
▁sink	-11.1937
els	-11.1937
Can	-11.1939
▁dr	-11.1939
▁explore	-11.1944
▁provision	-11.1945
▁Poor	-11.1945
▁Mis	-11.1945
▁radiation	-11.1945
▁promoted	-11.1947
▁incredibly	-11.1948
▁decrease	-11.1949
▁visits	-11.195
ox	-11.1951
▁bubble	-11.1951
▁Investment	-11.1952
▁retire	-11.1953
bell	-11.1953
▁statue	-11.1954
▁nominated	-11.1956
▁1000	-11.1957
▁resign	-11.1961
▁Karl	-11.1961
FC	-11.1962
▁shook	-11.1963
anti	-11.1963
col	-11.1965
▁trends	-11.1966
iding	-11.1966
▁pulling	-11.1967
een	-11.1969
rn	-11.1971
▁habits	-11.1972
▁sleeping	-11.1972
cen	-11.1973
▁blocks	-11.1976
▁indication	-11.1976
▁Dow	-11.1979
▁medieval	-11.1981
▁True	-11.1982
▁reserve	-11.1983
▁Lang	-11.1984
▁competing	-11.1987
itor	-11.1992
rr	-11.1993
▁Secret	-11.1993
▁tweeted	-11.1995
▁endless	-11.1995
▁panic	-11.2002
▁15,	-11.2004
▁Highway	-11.2006
▁safely	-11.2006
▁volumes	-11.2006
cul	-11.2007
▁bay	-11.2007
▁Forces	-11.201
▁pipe	-11.201
_;	-11.2011
▁define	-11.2012
▁Authority	-11.2016
Sha	-11.2017
▁trump	-11.2021
tile	-11.2023
▁soccer	-11.2023
▁Change	-11.2024
yo	-11.2025
dem	-11.2025
▁Shakespeare	-11.2027
▁Michelle	-11.203
▁Marie	-11.2031
▁120	-11.2031
▁weakness	-11.2032
test	-11.2033
▁neo	-11.2034
▁reviews	-11.2035
▁monster	-11.2036
▁chart	-11.2038
ule	-11.2038
▁flooding	-11.2039
▁lap	-11.204
▁submitted	-11.2041
▁Steven	-11.2041
▁!!	-11.2043
▁grip	-11.2044
chy	-11.2045
▁tide	-11.2046
▁intimate	-11.2046
▁discrimination	-11.2048
▁Cam	-11.2048
▁swept	-11.2048
▁humble	-11.205
self	-11.2051
▁Soon	-11.2051
▁cabin	-11.2054
▁integrity	-11.2054
▁awareness	-11.2057
▁CIA	-11.2059
▁colonial	-11.2063
▁ka	-11.2063
▁2018,	-11.2064
▁resigned	-11.2067
▁conscious	-11.2068
▁hint	-11.2069
-12	-11.2074
▁destination	-11.2084
▁yard	-11.2086
▁inquiry	-11.2087
tr	-11.2093
▁continuous	-11.2096
▁Between	-11.2098
▁Freedom	-11.2098
▁unfortunate	-11.2099
lf	-11.2105
▁artificial	-11.2107
▁1966	-11.211
▁Android	-11.211
▁marine	-11.2112
▁airline	-11.2112
300	-11.2112
▁uncertainty	-11.2114
▁unfortunately	-11.2116
▁holidays	-11.2117
▁Greg	-11.2117
▁preserved	-11.2118
▁sorts	-11.212
▁singular	-11.2121
▁tragic	-11.2124
▁possessed	-11.2127
PP	-11.2127
▁Doctor	-11.2127
BC	-11.2128
▁SC	-11.2129
▁Review	-11.2131
▁discussions	-11.2131
▁Malaysia	-11.2133
▁brands	-11.2134
▁Earlier	-11.2136
▁Ottoman	-11.2137
▁Scots	-11.2143
▁inevitable	-11.2144
▁shield	-11.2144
▁Seven	-11.2144
/2	-11.2146
▁logical	-11.2147
acy	-11.2148
ace	-11.215
stra	-11.2154
▁hardware	-11.2155
▁barrel	-11.2155
▁component	-11.2155
ava	-11.2156
▁coaches	-11.2158
▁Lane	-11.2159
▁musician	-11.2161
▁lets	-11.2162
Br	-11.2163
▁diversity	-11.2164
These	-11.2165
▁consciousness	-11.2165
▁50%	-11.217
▁10,000	-11.2171
ologist	-11.2171
▁rivals	-11.2172
▁operator	-11.2174
▁deliberately	-11.2176
▁Ol	-11.2178
▁ou	-11.2178
▁annually	-11.218
▁Franklin	-11.2182
ically	-11.2183
gri	-11.2184
▁basket	-11.2186
▁span	-11.2186
▁guidance	-11.2186
▁Subscribe	-11.2187
also	-11.2187
▁Ever	-11.2188
dding	-11.219
ingly	-11.2193
▁initiative	-11.2193
▁patent	-11.2194
▁bass	-11.2195
▁Command	-11.2197
▁OR	-11.2199
▁61	-11.22
▁cooperation	-11.2201
▁voyage	-11.2203
▁Boris	-11.2203
▁requested	-11.2205
▁Leicester	-11.2206
▁Taliban	-11.2206
▁promising	-11.2209
▁Josh	-11.2212
▁mutual	-11.2218
▁acquisition	-11.2219
▁scientist	-11.2222
▁smiled	-11.2224
▁enjoying	-11.2225
▁streak	-11.2229
▁Philippines	-11.2231
▁participation	-11.2234
▁boom	-11.2237
▁declare	-11.2238
▁nut	-11.2242
▁revolt	-11.2246
Vi	-11.2251
▁rode	-11.2255
▁Use	-11.2255
▁Campbell	-11.2257
▁Marc	-11.2257
▁Design	-11.226
▁violation	-11.226
▁BO	-11.2261
▁masses	-11.2262
▁outstanding	-11.2266
ua	-11.2267
▁lobby	-11.2269
▁hike	-11.2271
wo	-11.2272
▁prevented	-11.2274
▁Heart	-11.2274
▁Penn	-11.2275
By	-11.2275
▁tunnel	-11.2277
▁Kerry	-11.2277
▁McCain	-11.2277
▁ii	-11.2283
▁fluid	-11.2284
▁hub	-11.2284
ridge	-11.2286
▁criminals	-11.229
▁efficiency	-11.2294
▁Chairman	-11.2294
With	-11.2298
▁excess	-11.2299
▁wings	-11.23
▁widow	-11.23
▁Dog	-11.2301
▁protein	-11.2304
▁Il	-11.2304
▁CR	-11.2304
▁Pri	-11.2309
▁automatically	-11.2309
▁Sel	-11.231
▁Nevada	-11.2314
▁patrol	-11.2316
aged	-11.2317
iling	-11.2318
▁charter	-11.232
▁oxygen	-11.232
gel	-11.2321
▁stopping	-11.2322
▁Word	-11.2322
▁Denver	-11.2323
Some	-11.2325
▁buyers	-11.2326
▁implemented	-11.2328
▁Dream	-11.233
▁Non	-11.233
▁contempt	-11.2331
▁checks	-11.2331
▁Fred	-11.2332
▁broader	-11.2333
▁enterprise	-11.2333
▁YORK	-11.2334
▁ov	-11.2336
▁describing	-11.2338
▁***	-11.2338
▁Austin	-11.234
tas	-11.2341
▁gifts	-11.2347
▁winners	-11.2347
▁Net	-11.2349
▁alter	-11.235
▁Fri	-11.2352
pu	-11.2353
▁Mohammed	-11.2353
phone	-11.2354
▁dig	-11.2357
▁rhetoric	-11.2362
▁feared	-11.2363
▁leather	-11.2363
▁Capitol	-11.2363
▁pr	-11.2364
▁item	-11.2364
▁faithful	-11.2364
load	-11.2365
▁powder	-11.2368
▁MO	-11.2369
▁alarm	-11.237
▁Shi	-11.2374
▁bullet	-11.2375
▁processing	-11.2378
iness	-11.2379
▁removal	-11.238
▁holes	-11.2385
▁tube	-11.2387
▁traditions	-11.2387
▁vo	-11.2388
▁remarked	-11.239
▁Metro	-11.2391
▁controls	-11.2391
▁sal	-11.2392
▁dynasty	-11.2392
▁Madison	-11.2392
▁produces	-11.2394
!)	-11.2395
▁blamed	-11.2395
▁Luc	-11.2396
Ca	-11.2403
▁Staff	-11.2404
▁absurd	-11.2405
sion	-11.2405
sburg	-11.2406
▁carpet	-11.2406
▁Airlines	-11.2407
▁satisfaction	-11.2409
▁stance	-11.2413
gal	-11.2414
▁preparation	-11.2416
▁appearances	-11.2416
late	-11.2417
▁Cy	-11.2418
▁beef	-11.2423
▁cow	-11.2424
▁hopefully	-11.2426
▁organ	-11.2427
spect	-11.2427
▁trace	-11.2428
▁dealt	-11.2429
▁Say	-11.243
▁0.0	-11.243
▁expects	-11.243
▁philosopher	-11.2431
God	-11.2433
▁def	-11.2434
▁Keep	-11.2434
▁Uber	-11.2444
▁exhibit	-11.2444
▁react	-11.2447
▁imperial	-11.245
eng	-11.245
▁operates	-11.2451
▁Kan	-11.2458
▁beam	-11.2459
hon	-11.2461
▁au	-11.2466
▁temper	-11.2472
▁hyper	-11.2475
ried	-11.2476
ages	-11.2476
▁array	-11.2476
ATION	-11.2476
▁pressed	-11.2478
▁69	-11.2482
▁boring	-11.2483
▁provisions	-11.2483
▁Ak	-11.2484
▁Taiwan	-11.2487
▁LLC	-11.2489
party	-11.2489
▁ideology	-11.2491
washpost	-11.2491
▁formally	-11.2492
▁presentation	-11.2493
▁freely	-11.2493
▁Jennifer	-11.2494
▁rope	-11.2495
▁admission	-11.2497
▁prosecutors	-11.2499
view	-11.2502
▁apps	-11.2504
▁prejudice	-11.2505
sex	-11.2506
tech	-11.2508
ech	-11.2508
itch	-11.2513
▁physically	-11.2514
▁backing	-11.2515
ont	-11.2517
▁tissue	-11.2517
▁spirits	-11.2519
▁Corps	-11.252
▁provinces	-11.2521
▁3:	-11.2522
▁associate	-11.2525
▁trap	-11.2527
▁Within	-11.2528
▁Short	-11.253
Ka	-11.2537
cott	-11.2537
▁pump	-11.2538
ifying	-11.2538
mate	-11.2541
lle	-11.2541
season	-11.2541
mir	-11.2541
▁employer	-11.2541
▁Oakland	-11.2542
roll	-11.2543
▁bears	-11.2548
▁server	-11.2548
-15	-11.2549
▁clinical	-11.2551
▁2020	-11.2551
▁cult	-11.2555
▁Rod	-11.2556
▁surrender	-11.2558
▁Amendment	-11.2558
▁Program	-11.256
rap	-11.2562
▁walks	-11.2562
▁tourists	-11.2565
face	-11.2565
char	-11.2565
rod	-11.2565
II	-11.2566
RC	-11.2566
▁delicate	-11.2567
▁neuro	-11.2569
▁experiments	-11.2572
▁Comment	-11.2573
▁believing	-11.2575
▁Milan	-11.2575
▁innovation	-11.2577
▁MI	-11.258
▁85	-11.2582
▁alike	-11.2583
▁Marshall	-11.2585
▁longest	-11.2587
▁toxic	-11.2589
▁foolish	-11.2589
▁civilization	-11.2591
▁snap	-11.2591
lets	-11.2592
▁None	-11.2594
▁piano	-11.2595
▁balls	-11.2598
▁Hugh	-11.2599
▁thereby	-11.2599
ssel	-11.2602
▁Em	-11.2604
▁Fame	-11.261
gli	-11.261
▁Weather	-11.2611
▁Brad	-11.2613
▁tweet	-11.2616
▁Craig	-11.2617
woman	-11.2617
▁sustained	-11.2618
▁filter	-11.2619
trans	-11.2621
▁Heaven	-11.2622
▁isolated	-11.2624
>	-11.2624
▁phenomenon	-11.2626
▁tribe	-11.2626
hn	-11.2628
▁acquire	-11.2631
illo	-11.2631
▁citing	-11.2634
▁Var	-11.2634
▁Aaron	-11.2635
▁heir	-11.2635
▁implementation	-11.2637
▁expanding	-11.2638
Wa	-11.2639
▁checked	-11.2641
▁newsletter	-11.2641
▁eligible	-11.2644
▁supplement	-11.2644
kan	-11.2645
▁condemned	-11.2646
hall	-11.2648
▁Buy	-11.2648
cht	-11.2649
▁titled	-11.265
▁destroying	-11.265
▁Cre	-11.2651
▁knees	-11.2651
▁Check	-11.2652
iya	-11.2652
▁___	-11.2652
▁Zi	-11.2653
▁CD	-11.2653
▁publicity	-11.2653
▁2006,	-11.2654
▁1963	-11.2654
▁density	-11.2656
▁qua	-11.2657
gs	-11.2661
▁miserable	-11.2662
▁monarch	-11.2662
nder	-11.2663
▁revenues	-11.2663
▁businessman	-11.2666
▁villages	-11.2667
▁notably	-11.2667
▁mysterious	-11.2668
▁patterns	-11.267
▁travelling	-11.267
fact	-11.2672
▁Turner	-11.2672
World	-11.2672
NE	-11.2673
report	-11.2673
olo	-11.2676
oid	-11.2676
▁lad	-11.268
▁Qu	-11.2683
▁tourism	-11.2688
TION	-11.2688
▁creatures	-11.2689
▁Buck	-11.2689
▁chaos	-11.2689
people	-11.269
lly	-11.269
▁silk	-11.2692
▁globe	-11.2692
pri	-11.2692
▁boxes	-11.2694
▁stomach	-11.2694
lim	-11.2695
▁connections	-11.2695
▁trigger	-11.2695
▁architect	-11.2696
▁Rich	-11.2697
▁translated	-11.2699
▁dull	-11.27
▁ju	-11.2703
lau	-11.2705
▁Final	-11.2706
▁mighty	-11.2707
PR	-11.2707
cle	-11.2707
▁cleared	-11.2708
▁invested	-11.2709
.''	-11.2712
gent	-11.2712
▁Muhammad	-11.2712
▁Rh	-11.2712
▁pollution	-11.2712
wide	-11.2713
▁Commonwealth	-11.2715
▁Mission	-11.2715
▁belongs	-11.2717
▁outdoor	-11.2717
▁elaborate	-11.2718
▁Orange	-11.2719
▁Front	-11.2721
;&	-11.2722
▁fierce	-11.2722
▁1962	-11.2723
eb	-11.2724
▁prompted	-11.2725
▁studying	-11.2732
▁merit	-11.2732
DE	-11.2735
▁furniture	-11.2736
▁centers	-11.274
aro	-11.274
▁Whatever	-11.274
▁quantity	-11.2743
▁Charlotte	-11.2745
▁wit	-11.2745
lus	-11.2747
▁Cuban	-11.2747
▁clouds	-11.2747
▁Whit	-11.2748
▁Delhi	-11.2749
▁senator	-11.2751
▁swimming	-11.2751
▁campaigns	-11.2752
▁males	-11.2752
▁overnight	-11.2753
▁tens	-11.2753
▁searching	-11.2754
▁talented	-11.2755
MP	-11.2758
▁tips	-11.2759
▁sorrow	-11.276
▁spots	-11.276
▁grab	-11.2764
▁shareholders	-11.2766
▁accent	-11.2766
▁1961	-11.2766
▁traveling	-11.2767
▁Â	-11.2767
▁vary	-11.2771
school	-11.2774
▁Brit	-11.2777
▁earning	-11.2777
▁Model	-11.2778
▁innings	-11.2778
▁impose	-11.2781
▁Neither	-11.2782
▁praised	-11.2783
bury	-11.2783
▁qualities	-11.2784
vid	-11.2789
▁Owen	-11.2789
▁legislature	-11.279
Good	-11.2791
▁fighter	-11.2792
▁spaces	-11.2793
▁(16	-11.2796
▁collaboration	-11.2796
Di	-11.2796
core	-11.2799
▁hydro	-11.2802
▁Kent	-11.2802
▁quo	-11.2806
▁despair	-11.2808
▁Ay	-11.2811
▁Wolf	-11.2815
▁parliamentary	-11.2817
▁$0	-11.2817
ime	-11.2819
▁wholly	-11.2821
▁defended	-11.2821
▁donations	-11.2825
▁chocolate	-11.2826
▁owns	-11.2827
▁virtual	-11.2827
▁5-	-11.2828
▁Dead	-11.2829
▁halt	-11.2835
▁73	-11.2835
fra	-11.2835
▁designated	-11.2837
▁playoff	-11.2839
▁editorial	-11.284
▁presents	-11.284
▁sovereignty	-11.2843
▁errors	-11.2846
▁asks	-11.2846
▁solely	-11.2847
ense	-11.2848
▁cop	-11.2848
▁rendered	-11.2848
▁16,	-11.2849
▁investor	-11.285
Fa	-11.285
▁rage	-11.2852
▁seemingly	-11.2852
mel	-11.2855
▁Susan	-11.2856
▁highway	-11.2864
▁Tam	-11.2868
▁dam	-11.287
▁athletic	-11.2875
▁lasted	-11.2877
▁outbreak	-11.2878
▁tremendous	-11.2881
▁boyfriend	-11.2881
▁determination	-11.2882
▁pardon	-11.2883
▁Johnny	-11.2883
▁Eu	-11.2885
▁(5	-11.2886
▁territories	-11.2887
▁te	-11.2889
▁eighth	-11.2889
▁Gor	-11.289
ils	-11.289
card	-11.2897
▁Hell	-11.2899
NO	-11.2899
▁knocked	-11.29
▁Off	-11.2904
▁negotiate	-11.2905
▁Years	-11.2905
▁Television	-11.2905
▁$9	-11.2907
▁Pittsburgh	-11.2908
▁Watson	-11.2908
▁excessive	-11.291
▁$100	-11.291
miss	-11.2911
▁plea	-11.2913
▁600	-11.2913
▁ceased	-11.2914
▁proceed	-11.2921
▁citizenship	-11.2921
▁pregnancy	-11.2923
▁Benjamin	-11.2926
▁Catherine	-11.2926
TO	-11.2927
person	-11.2928
▁mounted	-11.2928
▁Warner	-11.293
▁Upon	-11.293
berry	-11.2931
▁Au	-11.2931
▁cluster	-11.2932
ille	-11.2933
▁Shah	-11.2934
oni	-11.2934
▁complained	-11.2934
Li	-11.2935
pr	-11.2935
▁Wild	-11.2936
▁peer	-11.2941
▁modified	-11.2945
▁shed	-11.2946
▁AN	-11.2947
gger	-11.295
▁volunteer	-11.2951
▁indicates	-11.2952
▁massacre	-11.2954
▁Imperial	-11.2957
position	-11.2958
▁Harrison	-11.2958
▁ashamed	-11.297
aya	-11.2971
hen	-11.2972
▁reliable	-11.2972
▁ser	-11.2972
▁instruction	-11.2976
▁Hills	-11.2976
rry	-11.2977
▁witnesses	-11.2978
▁Roy	-11.298
▁Larry	-11.2981
▁sections	-11.2984
▁visa	-11.2987
▁economics	-11.2988
ome	-11.2988
Da	-11.2988
▁slide	-11.2993
ALL	-11.2995
▁oath	-11.2999
▁Norwegian	-11.3006
▁coastal	-11.3007
▁grasp	-11.3007
too	-11.3008
▁Give	-11.3008
ature	-11.301
▁Wil	-11.3015
kov	-11.3016
front	-11.3018
▁savage	-11.3018
▁1944	-11.3024
link	-11.3029
▁Editor	-11.3031
ides	-11.3031
▁Hungarian	-11.3031
city	-11.3034
▁approaching	-11.3037
▁Dublin	-11.3038
IE	-11.3039
Ï	-11.3039
▁Fu	-11.3041
▁prisoner	-11.3045
▁17,	-11.3051
▁tan	-11.3054
▁firmly	-11.3054
▁71	-11.3055
▁Snow	-11.3058
▁categories	-11.3058
▁approve	-11.3058
▁2011.	-11.3061
aba	-11.3061
▁magnitude	-11.3066
▁colony	-11.3069
▁hi	-11.3069
▁goodness	-11.307
▁speakers	-11.307
▁boots	-11.3071
Where	-11.3072
▁Speaking	-11.3078
▁Lan	-11.3079
rey	-11.3081
▁affordable	-11.3082
▁differently	-11.3083
▁secular	-11.3084
ident	-11.3088
▁foods	-11.3092
▁indigenous	-11.3092
▁probe	-11.3093
–20	-11.3099
▁twist	-11.31
▁Native	-11.31
awa	-11.3102
nan	-11.3102
ees	-11.3103
▁publishing	-11.3105
▁leaf	-11.3107
▁maintaining	-11.3108
▁wondered	-11.3109
▁Sri	-11.3109
▁economies	-11.3111
▁billionaire	-11.3111
▁ceiling	-11.3111
▁lover	-11.3112
rea	-11.3114
rah	-11.312
▁wet	-11.3121
▁permanently	-11.3121
▁invention	-11.3122
▁vocal	-11.3123
▁cure	-11.3124
▁Collins	-11.3127
▁appearing	-11.3127
–1	-11.3128
Gu	-11.3131
▁harvest	-11.3133
▁dialogue	-11.3133
▁artistic	-11.3135
▁Ros	-11.3141
▁privilege	-11.3143
▁coin	-11.3145
▁mechanism	-11.3146
▁submit	-11.3148
▁purely	-11.3149
▁99	-11.315
▁SEC	-11.315
▁Bro	-11.3151
▁elder	-11.3152
mini	-11.3152
rating	-11.3152
▁SS	-11.3152
▁taxpayer	-11.3152
▁jacket	-11.3154
▁honestly	-11.3154
▁adaptation	-11.3154
▁evidently	-11.3156
▁cricket	-11.3156
▁Alice	-11.316
Har	-11.3164
▁republic	-11.3164
▁aims	-11.3166
▁kings	-11.3166
▁1.5	-11.3167
▁THAT	-11.3168
▁blocked	-11.3168
ui	-11.3168
▁Creek	-11.3169
▁Luke	-11.3171
æ	-11.3173
▁volunteers	-11.3177
▁Chamber	-11.3177
▁und	-11.3179
▁hungry	-11.3185
▁deadline	-11.3188
have	-11.3193
▁romance	-11.3195
shot	-11.32
▁1939	-11.32
ô	-11.3205
erson	-11.3209
▁fox	-11.321
leg	-11.3214
▁eternal	-11.3214
▁striker	-11.3216
Ja	-11.3217
▁surveillance	-11.322
▁railroad	-11.3221
tive	-11.3221
bla	-11.3221
▁Palm	-11.3223
▁invite	-11.3223
▁requiring	-11.3223
▁pronounced	-11.3225
▁partial	-11.3226
▁95	-11.3227
▁unity	-11.3229
tting	-11.3229
▁Federation	-11.323
▁crowded	-11.323
▁1948	-11.323
▁improvements	-11.3233
Fi	-11.3234
▁Greeks	-11.3236
▁cotton	-11.3236
FA	-11.3237
▁tobacco	-11.3239
▁Picture	-11.3239
▁Pin	-11.3241
▁pad	-11.3242
▁grandfather	-11.3242
▁76	-11.3243
sol	-11.3243
▁damn	-11.3243
▁Sin	-11.3243
▁dividend	-11.3246
?)	-11.3247
▁printing	-11.3254
▁agreements	-11.3256
▁Stein	-11.3257
▁cops	-11.3257
ato	-11.3258
▁Grace	-11.3258
▁identical	-11.3258
▁UP	-11.3258
▁demon	-11.3259
▁feeding	-11.3259
▁delayed	-11.326
wal	-11.326
▁Ren	-11.326
▁fabric	-11.3261
aud	-11.3264
▁20%	-11.3269
▁premium	-11.3271
▁ruler	-11.3277
▁AR	-11.3277
kes	-11.3279
▁Les	-11.328
▁distinguish	-11.328
▁photographs	-11.328
▁rifle	-11.3281
▁characteristics	-11.3282
▁Ana	-11.3284
En	-11.3288
IST	-11.3288
gre	-11.3289
▁Bloomberg	-11.329
main	-11.3291
▁missiles	-11.3293
▁Sean	-11.3294
▁headlines	-11.3295
▁stiff	-11.3295
▁evolved	-11.3298
▁Oliver	-11.3298
▁mixture	-11.33
▁Bus	-11.3301
▁brush	-11.3302
▁resource	-11.3302
▁lately	-11.3304
▁Mediterranean	-11.3305
▁conversion	-11.3309
▁consisting	-11.3311
hir	-11.3311
▁cra	-11.3311
horn	-11.3313
▁Kam	-11.3314
▁challenged	-11.3316
oe	-11.3318
▁dining	-11.332
▁Nicholas	-11.3321
▁supplied	-11.3323
▁Wayne	-11.3328
▁Hebrew	-11.333
▁inform	-11.333
▁troubled	-11.3332
à	-11.3334
▁Champions	-11.3335
kins	-11.3336
▁sn	-11.3338
▁Qui	-11.3339
tom	-11.3339
▁Village	-11.3339
▁nest	-11.334
▁thrust	-11.334
▁spotted	-11.3341
ved	-11.3341
▁packed	-11.3343
▁pose	-11.3344
▁transit	-11.3345
rri	-11.3346
▁psychological	-11.335
▁Commons	-11.3354
▁ARE	-11.3355
▁anchor	-11.3355
ific	-11.3356
▁Pop	-11.3358
dor	-11.3358
▁insist	-11.3358
▁Abraham	-11.3366
arm	-11.3369
,''	-11.3369
▁opens	-11.3372
▁mercy	-11.3372
kel	-11.3374
▁requests	-11.3374
▁Motor	-11.3375
lies	-11.3375
▁boundaries	-11.3376
▁unexpected	-11.3378
▁supreme	-11.3379
▁Mitchell	-11.3379
lation	-11.338
fu	-11.338
▁Monte	-11.3381
▁shout	-11.3381
▁Caribbean	-11.3382
▁slipped	-11.3382
▁Records	-11.3383
cl	-11.3384
▁practically	-11.3384
▁trusted	-11.3385
▁significance	-11.3385
▁fever	-11.3387
▁disgrace	-11.3388
▁enthusiasm	-11.3388
▁declaration	-11.3391
▁tendency	-11.3392
▁torture	-11.3392
anda	-11.3393
▁photograph	-11.3393
▁refugee	-11.3394
ali	-11.3397
mine	-11.3397
commenter	-11.3398
▁outfit	-11.3403
▁ego	-11.3403
▁census	-11.3404
EE	-11.3407
▁Season	-11.3407
▁directions	-11.3408
permalink	-11.3411
▁OUT	-11.3412
▁Shu	-11.3415
Ch	-11.3415
num	-11.3416
ér	-11.3418
▁Bear	-11.3418
▁arrangements	-11.3418
▁midnight	-11.3418
▁Ok	-11.342
▁quarters	-11.342
ider	-11.3425
▁witnessed	-11.3425
▁Gregory	-11.3427
▁chi	-11.3432
▁Hey	-11.3432
ode	-11.3434
ori	-11.3437
▁brutal	-11.344
▁sharply	-11.3443
winning	-11.3446
▁adviser	-11.3446
▁probability	-11.3446
▁scholar	-11.3447
▁recognised	-11.3447
▁rivers	-11.3455
▁Holland	-11.3455
▁spectrum	-11.3455
▁tons	-11.3455
bad	-11.346
ttle	-11.346
▁Senior	-11.3462
ago	-11.3464
▁Tokyo	-11.3465
▁dawn	-11.3466
▁regulatory	-11.3469
▁Gall	-11.3469
▁trials	-11.3469
▁bombs	-11.347
▁bronze	-11.3472
▁Ky	-11.3473
▁retained	-11.3476
▁exclusively	-11.3476
Th	-11.3477
▁construct	-11.3478
hin	-11.3478
mil	-11.348
▁triple	-11.3484
▁Sure	-11.3487
nia	-11.3487
▁unfair	-11.3491
aging	-11.3495
gas	-11.3495
▁sits	-11.3496
stop	-11.3497
NS	-11.3499
▁instances	-11.3499
▁tourist	-11.35
▁cha	-11.3503
▁Nevertheless	-11.3504
▁bite	-11.3507
▁77	-11.3508
ivity	-11.351
▁drinks	-11.351
▁!!!	-11.3511
br	-11.3513
▁Ruth	-11.3516
-19	-11.3517
fl	-11.3521
▁Cast	-11.3521
▁Terry	-11.3522
▁Cold	-11.3522
▁Ur	-11.3523
▁remark	-11.3523
▁eliminate	-11.3524
▁LE	-11.3525
▁database	-11.3525
▁Hampshire	-11.3526
▁Ian	-11.3529
Bar	-11.3529
▁aunt	-11.3529
▁arose	-11.3537
▁commissioner	-11.3537
▁Chancellor	-11.3538
▁blessed	-11.354
ear	-11.354
ager	-11.3541
▁corresponding	-11.3542
▁subscribing	-11.3543
▁succession	-11.3543
▁Hence	-11.3544
▁Costa	-11.3546
▁illegally	-11.3553
▁epi	-11.3553
▁avoided	-11.3555
▁invitation	-11.3556
▁Christie	-11.3556
lip	-11.3557
▁mud	-11.3557
▁planes	-11.356
▁farther	-11.356
▁Due	-11.3562
tant	-11.3564
▁bathroom	-11.3566
ctu	-11.3567
▁gallery	-11.3569
▁procedures	-11.3569
▁Glen	-11.3571
ibility	-11.3574
▁mob	-11.3583
▁2005,	-11.3584
▁Phoenix	-11.3585
▁fails	-11.3586
yer	-11.3587
▁populations	-11.3591
▁biological	-11.3592
▁Pierre	-11.3593
▁advocate	-11.3593
gie	-11.3593
cru	-11.3594
▁Kal	-11.3594
▁meals	-11.3596
▁demonstrate	-11.3597
▁15-	-11.3598
▁Sara	-11.3598
sure	-11.3598
▁pole	-11.3599
zu	-11.3599
▁dreadful	-11.3599
▁grain	-11.36
bby	-11.3601
▁Gallery	-11.3602
▁Intelligence	-11.3602
▁creates	-11.3606
▁respective	-11.3607
▁kiss	-11.361
▁welcomed	-11.3611
dle	-11.3615
inter	-11.3615
▁noon	-11.3615
sized	-11.3615
▁whatsoever	-11.3617
tum	-11.3617
▁survival	-11.3617
▁tomb	-11.362
▁jo	-11.3621
fan	-11.3622
▁vile	-11.3624
chan	-11.3624
▁accepting	-11.3627
▁wives	-11.363
▁Anglo	-11.3631
▁jurisdiction	-11.3632
▁prosecution	-11.3634
wall	-11.3635
▁Card	-11.3635
NY	-11.3637
HA	-11.3638
▁emerge	-11.3638
▁communist	-11.3639
▁comedian	-11.3641
▁Roll	-11.3642
▁delighted	-11.3643
PC	-11.3645
▁Ralph	-11.3647
dict	-11.3651
▁Thailand	-11.3651
▁Eve	-11.3653
▁heritage	-11.3654
▁adapted	-11.3655
▁insult	-11.3657
▁complaining	-11.3657
lat	-11.3658
▁Jefferson	-11.366
▁handled	-11.366
▁outlook	-11.3662
EA	-11.3662
▁Thi	-11.3663
jan	-11.3664
spir	-11.3664
▁tag	-11.3666
pic	-11.3668
▁hook	-11.3669
▁pledge	-11.3669
▁engineers	-11.367
▁”	-11.3673
▁prospects	-11.3675
▁Thatcher	-11.3675
▁TR	-11.3677
ctor	-11.3678
▁tout	-11.3678
▁VII	-11.3679
▁menu	-11.3679
▁provider	-11.3681
▁Socialist	-11.3682
▁shade	-11.3684
▁signals	-11.3689
▁1900	-11.3691
ugh	-11.3692
ela	-11.3692
▁ugly	-11.3693
▁actively	-11.3695
▁acres	-11.3696
▁judicial	-11.3697
ncy	-11.3697
▁250	-11.3698
▁Orthodox	-11.3698
▁remind	-11.3699
▁transformation	-11.3702
▁Beck	-11.3704
▁shorter	-11.3705
▁females	-11.3706
▁Nigel	-11.3707
▁chef	-11.3708
lib	-11.3712
▁removing	-11.3714
▁partially	-11.3714
▁McDonald	-11.3716
▁Sim	-11.3717
▁publish	-11.3719
▁instantly	-11.372
▁ID	-11.3721
▁overwhelming	-11.3721
▁traditionally	-11.3722
▁pla	-11.3722
hol	-11.3724
▁chip	-11.3727
▁paintings	-11.3728
▁shipping	-11.3728
case	-11.3729
▁verse	-11.373
▁Child	-11.3731
▁infant	-11.3732
BO	-11.3733
lier	-11.3735
▁routes	-11.3736
▁strongest	-11.3736
▁Cop	-11.3739
▁physics	-11.374
▁spill	-11.3743
▁2010.	-11.3745
▁suspension	-11.3746
ancy	-11.3747
▁mal	-11.3748
eri	-11.3748
udi	-11.3749
THE	-11.375
▁disappear	-11.375
▁shocking	-11.3751
▁Helen	-11.3752
▁linear	-11.3753
▁Speaker	-11.3754
▁MA	-11.3754
vic	-11.3756
▁Finland	-11.3757
ILL	-11.3757
▁hiring	-11.376
▁hostile	-11.3761
meter	-11.3761
chu	-11.3762
▁insight	-11.3764
▁distress	-11.3765
thy	-11.3766
ras	-11.3766
cade	-11.3766
sley	-11.3767
▁residential	-11.377
ald	-11.3771
▁separation	-11.3772
▁lease	-11.3776
▁Dur	-11.3776
▁reckon	-11.3778
▁choosing	-11.3779
▁scratch	-11.3779
▁neighbor	-11.378
▁Probably	-11.3781
tone	-11.3782
▁Policy	-11.3782
▁unhappy	-11.3783
▁enabled	-11.3783
▁slim	-11.3784
▁communicate	-11.3787
present	-11.3788
etic	-11.3789
▁lip	-11.379
▁Bernard	-11.3791
▁calculated	-11.3791
▁prayers	-11.3792
being	-11.3795
etta	-11.3795
▁files	-11.3796
▁examine	-11.3797
teen	-11.3797
lian	-11.3798
▁amendment	-11.3801
▁Athens	-11.3803
▁stem	-11.3804
▁outer	-11.3809
▁kit	-11.3809
▁dynamic	-11.381
▁rot	-11.3814
▁economist	-11.3814
▁requirement	-11.3815
Am	-11.3816
▁souls	-11.3817
▁Future	-11.3819
adi	-11.382
▁78	-11.3821
▁hotels	-11.3821
-16	-11.3823
▁Mun	-11.3824
▁suits	-11.3825
▁customs	-11.3827
▁Looking	-11.3829
vor	-11.3833
▁delegates	-11.3834
nel	-11.3835
lement	-11.3835
▁Laura	-11.3836
DR	-11.3837
▁ghost	-11.3839
▁Abu	-11.3844
▁lists	-11.3845
▁rotation	-11.3845
▁spark	-11.3846
▁Moses	-11.3846
AND	-11.3849
▁belonged	-11.3849
▁chase	-11.385
bro	-11.3852
▁dressing	-11.3853
screen	-11.3854
open	-11.3855
▁cliff	-11.3856
▁pepper	-11.3856
▁Independent	-11.3859
▁arriving	-11.3859
▁selfish	-11.386
▁warn	-11.3864
▁PEOPLE	-11.3866
▁resignation	-11.3866
án	-11.3866
":"	-11.3866
Jo	-11.3869
	-11.3869
▁Knight	-11.3873
mph	-11.3874
▁Carr	-11.3875
▁respected	-11.3875
home	-11.3875
▁departments	-11.3875
MC	-11.3876
LI	-11.3876
▁mankind	-11.3876
▁presently	-11.3877
▁Ward	-11.3877
▁descent	-11.3881
▁gaining	-11.3881
Mi	-11.3882
▁stunning	-11.3882
stead	-11.3883
▁sadly	-11.3884
shaped	-11.3885
▁Hudson	-11.3886
▁approaches	-11.3887
bur	-11.3888
▁Goldman	-11.3889
songwriter	-11.3891
▁GO	-11.3892
▁emotion	-11.3893
▁forum	-11.3894
▁Fisher	-11.3894
▁blessing	-11.3895
▁Medicare	-11.3899
▁wont	-11.3901
rock	-11.3901
▁celebrities	-11.3903
vie	-11.3903
▁Notes	-11.3905
sia	-11.3907
cin	-11.3907
▁taxi	-11.3908
▁Barr	-11.3909
▁dishes	-11.3909
▁infection	-11.3912
▁Fer	-11.3914
PO	-11.3917
-11	-11.3917
coming	-11.3919
▁addressing	-11.392
▁monitoring	-11.392
▁Code	-11.3923
▁absent	-11.3925
▁grammar	-11.3926
▁CH	-11.3929
▁Money	-11.393
FF	-11.3931
▁Wind	-11.3933
▁repeal	-11.3933
▁counted	-11.3937
▁Globe	-11.3937
▁photographer	-11.3941
▁1941	-11.3941
▁opposing	-11.3943
▁conquest	-11.3943
▁2-	-11.3945
print	-11.3947
▁Newton	-11.3948
nell	-11.3952
▁Million	-11.3953
▁discussing	-11.3954
▁Blake	-11.3956
▁meanwhile	-11.3957
▁sculpture	-11.396
MI	-11.396
▁Guy	-11.3961
IR	-11.3962
▁Nancy	-11.3962
▁occasional	-11.3965
▁Conservatives	-11.3966
▁Province	-11.397
▁Type	-11.397
gna	-11.3973
▁render	-11.3973
▁cor	-11.3975
weight	-11.3976
▁TODAY	-11.3977
▁champions	-11.3979
His	-11.3979
▁wherever	-11.398
▁Sk	-11.3981
3)	-11.3981
▁opt	-11.3982
▁Victor	-11.3983
▁gi	-11.3988
▁focusing	-11.3988
▁columns	-11.3989
▁novels	-11.399
▁Girl	-11.3993
▁renewed	-11.3993
▁st	-11.3994
▁Pla	-11.3994
▁rebellion	-11.3994
▁differ	-11.3994
▁feast	-11.3995
▁riot	-11.3996
▁Number	-11.3998
▁achievement	-11.4
▁Joan	-11.4
▁Iron	-11.4
▁monetary	-11.4
▁examined	-11.4002
▁advocates	-11.4003
▁100,000	-11.4004
▁Rather	-11.4005
▁sufficiently	-11.4007
▁Bin	-11.4007
▁developers	-11.4009
▁spec	-11.4009
bol	-11.401
▁Row	-11.4011
▁Chapter	-11.4011
▁2008.	-11.4014
▁attendance	-11.4016
udge	-11.4019
▁Drive	-11.4019
▁austerity	-11.4021
▁fraction	-11.4021
▁Netflix	-11.4023
▁Sound	-11.4025
▁slot	-11.4025
smith	-11.4026
▁1%	-11.4026
▁crops	-11.4026
▁gentlemen	-11.4026
UM	-11.4027
though	-11.4028
▁spreading	-11.4032
igan	-11.4034
▁Deputy	-11.4034
vit	-11.4036
▁$20	-11.4038
▁streaming	-11.4038
▁references	-11.4039
▁siege	-11.4041
▁1942	-11.4042
▁drum	-11.4046
sign	-11.4048
▁offence	-11.4049
▁lab	-11.4049
wen	-11.405
ELL	-11.4053
▁lazy	-11.4054
HO	-11.4057
▁curve	-11.4058
▁realised	-11.406
▁hated	-11.4061
▁proceedings	-11.4061
▁Vladimir	-11.4062
ais	-11.4063
▁premiere	-11.4063
▁cultures	-11.4063
ith	-11.4064
▁professionals	-11.4069
▁commanded	-11.407
phe	-11.4072
▁hybrid	-11.4075
▁Samsung	-11.4075
▁ri	-11.4076
▁Mai	-11.4076
▁manufacture	-11.4076
▁proposition	-11.4077
bag	-11.4079
▁continually	-11.4079
type	-11.4082
▁Mourinho	-11.4082
▁palm	-11.4082
lla	-11.4083
▁enforce	-11.4084
▁detect	-11.4084
▁uncertain	-11.4085
gro	-11.4087
Mu	-11.4087
▁trucks	-11.4088
▁decree	-11.4089
▁congressional	-11.4089
▁withdraw	-11.4091
▁adoption	-11.4092
▁ruined	-11.4093
▁readily	-11.4093
▁02	-11.4099
▁adventure	-11.4099
story	-11.41
▁Put	-11.4106
▁societies	-11.4106
▁mor	-11.4106
cons	-11.4106
▁12-	-11.4107
▁priests	-11.411
aria	-11.4111
▁proceeded	-11.4112
▁immense	-11.4113
mission	-11.4114
national	-11.4115
▁Barbara	-11.4117
▁killer	-11.4117
lessly	-11.4118
▁Arch	-11.4119
til	-11.412
▁suspects	-11.4121
▁Prior	-11.4121
▁cargo	-11.4123
▁Fall	-11.4124
▁regards	-11.4125
▁74	-11.4126
vision	-11.4127
▁founding	-11.4128
▁loaded	-11.413
▁Books	-11.413
▁bankruptcy	-11.4131
▁asleep	-11.4131
▁Parker	-11.4132
▁000	-11.4134
▁Index	-11.4134
▁Medicine	-11.4134
▁Writer	-11.4136
▁providers	-11.4137
inger	-11.4137
mu	-11.4138
ender	-11.4141
▁Run	-11.4142
▁Farm	-11.4145
▁directors	-11.4146
▁protocol	-11.4147
▁recognise	-11.415
OC	-11.415
▁restricted	-11.4154
▁sustain	-11.4155
▁reserves	-11.4155
wit	-11.4162
tier	-11.4163
▁buck	-11.4163
▁(15	-11.4163
bas	-11.4165
▁Mat	-11.4168
▁bug	-11.4168
▁flavor	-11.4168
▁AFP	-11.4169
ante	-11.4169
▁underlying	-11.4172
▁Leon	-11.4178
aga	-11.418
tric	-11.4181
▁McG	-11.4185
▁Nobody	-11.4185
▁shy	-11.4185
▁traveled	-11.4186
▁Wo	-11.419
Your	-11.4191
version	-11.4192
▁sweat	-11.4193
▁colonies	-11.4193
▁Things	-11.4193
▁severely	-11.4193
▁upgrade	-11.4195
▁hack	-11.4196
▁duck	-11.4197
▁makers	-11.4197
▁governing	-11.4198
▁twin	-11.4199
pha	-11.4202
▁OS	-11.4202
▁autumn	-11.4203
▁pioneer	-11.4203
▁Kra	-11.4204
kers	-11.4204
▁wh	-11.4206
▁1956	-11.4209
▁risen	-11.4209
yes	-11.421
▁Side	-11.4212
▁dictator	-11.4212
▁mothers	-11.4213
▁alternate	-11.4213
▁(4	-11.4214
▁neighbours	-11.4215
▁Nan	-11.4215
▁Magazine	-11.4217
▁Pac	-11.4217
▁advise	-11.4219
Hu	-11.422
▁compelled	-11.422
▁historically	-11.4221
▁particles	-11.4223
force	-11.4224
▁Ven	-11.4225
▁2009.	-11.4227
▁(6	-11.4228
▁Vienna	-11.4231
▁Mason	-11.4231
▁applies	-11.4235
▁outrage	-11.4235
▁assert	-11.4236
▁anticipated	-11.4237
▁Keith	-11.424
▁keyboard	-11.424
▁acquaintance	-11.4241
▁Section	-11.4242
▁sphere	-11.4242
▁argues	-11.4243
▁pockets	-11.4243
▁Forum	-11.4245
▁nerve	-11.4246
▁1947	-11.4247
▁30-	-11.4248
▁Reid	-11.4248
▁finishing	-11.425
▁Unless	-11.4254
▁Rice	-11.4254
▁Columbus	-11.4255
▁mature	-11.426
▁poorly	-11.4261
▁reminded	-11.4266
▁projected	-11.4266
▁bits	-11.4268
▁acceptance	-11.4269
▁texts	-11.4272
▁filling	-11.4272
▁Alfred	-11.4273
nc	-11.4275
▁closest	-11.4276
▁dragged	-11.4276
▁prosperity	-11.4277
size	-11.4277
phy	-11.4283
uf	-11.4284
beat	-11.4289
▁scattered	-11.429
▁weigh	-11.4295
▁muscle	-11.4295
▁logo	-11.4297
green	-11.4299
▁Hispanic	-11.43
▁framework	-11.4301
▁magnetic	-11.4303
MENT	-11.4306
▁profound	-11.4307
▁replacing	-11.4307
NT	-11.4311
▁Unit	-11.4312
▁Yemen	-11.4313
▁cab	-11.4314
▁pitcher	-11.4316
▁Presidential	-11.4317
▁grandmother	-11.4318
▁raid	-11.432
▁dose	-11.4321
▁emotions	-11.4321
▁Morning	-11.4323
itu	-11.4324
▁dismiss	-11.4325
▁placing	-11.4325
▁suspicious	-11.4328
▁Alliance	-11.4328
▁cruise	-11.4329
▁govern	-11.433
RY	-11.4334
▁cheek	-11.4335
▁PRO	-11.4335
▁surge	-11.4337
▁Hen	-11.4338
▁yeah	-11.434
▁pie	-11.434
▁wash	-11.4341
▁dual	-11.4341
▁Puerto	-11.4342
wise	-11.4342
code	-11.4344
▁myth	-11.4345
▁Comp	-11.4345
rist	-11.4345
▁ambitious	-11.4346
▁Marco	-11.4348
▁creator	-11.4348
▁Century	-11.4348
▁jazz	-11.435
▁closure	-11.435
▁Yankees	-11.4352
atic	-11.4355
ista	-11.4355
▁glorious	-11.4355
▁publisher	-11.4355
▁clown	-11.4357
aff	-11.4361
▁loyalty	-11.4362
▁Zo	-11.4362
▁parks	-11.4365
fur	-11.4366
▁alien	-11.4367
▁Everything	-11.4369
▁drill	-11.437
▁Spurs	-11.4371
▁correctly	-11.4377
▁bases	-11.4378
kill	-11.438
▁starring	-11.4382
▁hydrogen	-11.4382
▁copyright	-11.4386
▁800	-11.4386
▁vegetables	-11.439
▁Lou	-11.4391
▁shower	-11.4392
▁Amy	-11.4393
iti	-11.4393
▁mega	-11.4395
▁grim	-11.4399
▁playoffs	-11.4399
▁Advertisement	-11.4399
▁Melbourne	-11.4399
used	-11.4402
▁urge	-11.4404
▁operators	-11.4404
▁Robin	-11.4405
▁stops	-11.4411
▁fitness	-11.4413
▁accord	-11.4413
sted	-11.4415
▁Travel	-11.4415
▁sang	-11.442
second	-11.442
▁wrapped	-11.4424
▁tanks	-11.4427
▁Lebanon	-11.4427
▁financing	-11.4427
▁underground	-11.4427
Se	-11.4428
▁vertical	-11.443
▁pleaded	-11.4432
▁mathematical	-11.4434
▁convey	-11.4435
▁drives	-11.4437
▁Online	-11.4442
▁disappointment	-11.4442
▁Baron	-11.4443
▁VIII	-11.4445
Ah	-11.4447
AF	-11.4448
▁dump	-11.4449
▁Sony	-11.4449
▁Simpson	-11.4455
▁qualify	-11.4457
▁Mitt	-11.4457
▁warfare	-11.4459
▁spike	-11.4459
▁Tru	-11.446
▁realistic	-11.446
▁ré	-11.4461
▁treating	-11.4463
TR	-11.4464
........	-11.4467
▁Nice	-11.4469
str	-11.4472
roy	-11.4472
▁exploit	-11.4473
▁bump	-11.4473
▁fu	-11.4474
GB	-11.4475
gard	-11.4477
▁cyber	-11.4477
▁Try	-11.4478
aj	-11.4485
west	-11.4486
▁credits	-11.4487
▁math	-11.4488
itis	-11.4488
▁appoint	-11.4491
pes	-11.4491
▁provincial	-11.4491
▁guilt	-11.4493
▁loop	-11.4494
ake	-11.4495
▁armies	-11.4495
▁accuracy	-11.4498
▁irrelevant	-11.4498
▁revenge	-11.4498
▁investing	-11.4498
▁jealous	-11.45
▁refusing	-11.4502
minded	-11.4503
▁Ref	-11.4504
▁conception	-11.4506
▁Finance	-11.4506
▁Nine	-11.4507
▁"_	-11.4508
oph	-11.4509
sum	-11.4511
▁Tel	-11.4511
▁retailers	-11.4514
▁Belgian	-11.4516
▁Lisa	-11.452
▁considerably	-11.4522
▁extract	-11.4522
RS	-11.4523
▁fare	-11.4523
▁equation	-11.4523
body	-11.4524
▁addresses	-11.4527
▁unnecessary	-11.4531
▁explaining	-11.4532
eva	-11.4533
▁Kill	-11.4533
▁Dia	-11.4537
▁Az	-11.4537
▁Railway	-11.4539
From	-11.4539
▁teen	-11.454
▁Sad	-11.4541
▁decay	-11.4541
▁Theresa	-11.4542
▁Kings	-11.4546
lli	-11.4548
▁stern	-11.4548
▁Action	-11.4549
asse	-11.4549
▁speeches	-11.455
▁integrated	-11.4551
▁miracle	-11.4552
▁clash	-11.4554
▁safer	-11.4555
Her	-11.4556
▁spur	-11.4557
!!!!	-11.4558
tical	-11.456
▁20-	-11.4562
▁1958	-11.4563
▁productive	-11.4564
▁Reading	-11.4566
▁deployed	-11.4566
▁cartoon	-11.4567
▁bothered	-11.4567
▁Cohen	-11.4568
▁misery	-11.4568
May	-11.4568
▁Nixon	-11.457
▁Syn	-11.4572
hem	-11.4572
▁chap	-11.4572
▁gene	-11.4574
▁musicians	-11.4575
▁behave	-11.4577
bird	-11.4577
▁crashed	-11.4579
▁essay	-11.4582
pit	-11.4584
▁Invalid	-11.4584
▁Kris	-11.4587
▁Cru	-11.4589
▁01	-11.4591
mag	-11.4591
▁feminist	-11.4594
▁deserved	-11.4594
▁inclined	-11.4595
▁humor	-11.4595
▁Cabinet	-11.4595
▁console	-11.4595
headed	-11.4596
▁smartphone	-11.4597
▁1959	-11.4598
▁----	-11.4598
▁Maine	-11.4599
▁consultant	-11.4601
▁clause	-11.4602
lift	-11.4603
▁Manager	-11.4603
▁£2	-11.4604
▁Clo	-11.4605
sses	-11.4605
▁ranging	-11.4606
▁assuming	-11.4607
▁pig	-11.4608
▁Sultan	-11.461
▁gym	-11.4611
▁©	-11.4611
wards	-11.4612
▁trailer	-11.4612
una	-11.4616
pass	-11.462
▁ven	-11.462
-14	-11.4623
▁interfere	-11.4624
▁Pur	-11.4624
▁Carson	-11.4624
zen	-11.4626
▁makeup	-11.4627
▁nearest	-11.4628
▁prey	-11.4628
IV	-11.4631
ache	-11.4634
▁frozen	-11.4638
did	-11.4639
▁bark	-11.4639
▁Venezuela	-11.4641
▁iPad	-11.4642
▁Alexandria	-11.4642
▁Bengal	-11.4643
▁recommendations	-11.4643
▁dies	-11.4644
▁celebrating	-11.4646
▁PS	-11.4646
.00	-11.4648
eta	-11.4649
▁Language	-11.4649
▁faculty	-11.4649
▁ritual	-11.4649
▁probable	-11.4649
look	-11.4649
▁spoil	-11.4652
makers	-11.4653
▁vector	-11.4653
walk	-11.4655
▁Upper	-11.4655
▁Got	-11.4656
▁couples	-11.4656
▁Better	-11.4657
▁tick	-11.4657
dog	-11.466
ón	-11.4661
▁journalism	-11.4663
▁plug	-11.4665
▁tent	-11.4668
because	-11.4672
▁minimal	-11.4675
▁Patriots	-11.4678
▁ornament	-11.4679
▁interface	-11.4679
▁Hunter	-11.468
▁Dakota	-11.4682
▁sack	-11.4682
▁Virgin	-11.4684
▁vaccine	-11.4685
▁teenager	-11.4686
▁HIV	-11.4686
▁Independence	-11.4688
▁accommodate	-11.4689
▁consisted	-11.4689
▁spray	-11.469
▁pu	-11.4692
▁capabilities	-11.4693
▁Messi	-11.4693
▁pause	-11.4693
TC	-11.4695
GO	-11.4696
sie	-11.4698
▁Romania	-11.4698
▁foster	-11.4698
▁completion	-11.47
▁Murphy	-11.47
watch	-11.47
nov	-11.4711
▁revised	-11.4711
▁colleges	-11.4712
▁Birmingham	-11.4715
▁Cole	-11.4715
▁immigrant	-11.4715
▁Chad	-11.4716
etti	-11.4716
ups	-11.4717
▁foreigners	-11.4719
▁cons	-11.4721
▁strengthen	-11.4722
▁Turn	-11.4722
▁2,000	-11.4728
OW	-11.4728
tail	-11.4733
wind	-11.4734
mber	-11.4735
IG	-11.4736
stock	-11.4737
▁algorithm	-11.4737
▁Wait	-11.474
▁cal	-11.4741
▁Coach	-11.4743
iac	-11.4743
▁longtime	-11.4748
▁scope	-11.4749
love	-11.4751
▁Half	-11.4751
Come	-11.4753
▁patch	-11.4756
▁withdrawal	-11.4757
isse	-11.4757
ido	-11.4757
▁varied	-11.4759
▁Religion	-11.4761
Dr	-11.4762
▁Carol	-11.4764
▁resume	-11.4766
▁Sylvia	-11.4766
▁ingredients	-11.4767
ids	-11.4769
▁sweep	-11.477
▁chronic	-11.477
▁meaningful	-11.4772
200	-11.4773
▁commentary	-11.4774
▁lesser	-11.4775
▁saint	-11.4776
­	-11.4777
▁tro	-11.478
▁confess	-11.4781
▁guaranteed	-11.4783
dent	-11.4783
AGE	-11.4785
▁Along	-11.4785
▁afterward	-11.4785
EST	-11.4785
ike	-11.4786
▁tracking	-11.4787
▁Bri	-11.4789
▁Horn	-11.4789
▁receives	-11.4789
▁verdict	-11.4795
▁manufacturer	-11.4795
▁timing	-11.4795
▁traders	-11.4796
ogen	-11.4799
▁Oak	-11.4799
▁Actor	-11.4799
▁competitors	-11.48
▁farmer	-11.4801
▁cats	-11.4802
▁assembled	-11.4803
▁shouted	-11.4804
▁Ice	-11.4806
▁Climate	-11.4806
▁FOX	-11.4807
▁automatic	-11.4808
té	-11.481
▁Rangers	-11.4811
alo	-11.4812
▁uncomfortable	-11.4814
▁tropical	-11.4814
DC	-11.4815
..."	-11.4816
▁Kenya	-11.4817
▁accusations	-11.4818
▁equipped	-11.4818
▁lane	-11.4819
tors	-11.482
vol	-11.4823
▁Arena	-11.4827
itation	-11.483
▁sessions	-11.4832
▁assure	-11.4832
shing	-11.4833
oz	-11.4834
ifies	-11.4838
▁Len	-11.4839
▁Around	-11.4839
PM	-11.484
▁reflects	-11.484
▁mais	-11.4841
got	-11.4841
▁Roberts	-11.4842
author	-11.4844
▁WASHINGTON	-11.4847
▁helpful	-11.4848
▁investigations	-11.4849
▁Edwards	-11.485
▁purchasing	-11.485
▁relating	-11.4852
▁obey	-11.4853
sar	-11.4853
▁Round	-11.4854
▁stamp	-11.4855
▁drain	-11.4855
▁Pitt	-11.4857
▁Nar	-11.4858
▁pants	-11.4859
▁counting	-11.486
▁LI	-11.4861
▁THIS	-11.4862
▁subtle	-11.4864
▁Gill	-11.4865
adj	-11.487
▁awkward	-11.4873
▁screw	-11.4874
held	-11.4875
▁imports	-11.4875
MB	-11.4875
▁meets	-11.4876
uit	-11.4878
▁Ran	-11.4879
▁utility	-11.488
▁charging	-11.4882
▁1946	-11.4883
▁stole	-11.4883
USA	-11.4884
▁battles	-11.4885
▁fold	-11.4885
Cl	-11.4885
▁Cut	-11.4887
▁ge	-11.4887
▁licence	-11.4887
▁radar	-11.4888
▁denial	-11.4888
▁tenure	-11.4889
share	-11.489
▁Hur	-11.4891
▁Fan	-11.4892
▁Protection	-11.4895
keeper	-11.4898
▁sectors	-11.4898
PL	-11.4904
▁lineup	-11.4905
▁Byzantine	-11.4906
aine	-11.4906
▁Isle	-11.4906
▁Met	-11.4907
▁1943	-11.4909
▁screening	-11.491
▁Singh	-11.4911
▁prosecutor	-11.4914
EU	-11.4914
▁Pick	-11.4914
cio	-11.4916
▁BR	-11.4918
▁integration	-11.4919
▁theft	-11.492
▁obscure	-11.4925
▁desperately	-11.4927
wn	-11.4929
▁den	-11.4929
▁Sto	-11.493
CI	-11.493
▁Culture	-11.4932
RT	-11.4934
▁Bird	-11.4934
▁Carlos	-11.4934
▁82	-11.494
▁surgeon	-11.494
eller	-11.4942
▁households	-11.4943
▁mainland	-11.4943
▁nephew	-11.4947
ann	-11.4948
▁ambition	-11.4949
▁torn	-11.4949
▁Bat	-11.495
▁proves	-11.4951
▁treasure	-11.4952
▁roster	-11.4952
▁abandon	-11.4952
▁Abbott	-11.4953
▁pursued	-11.4953
▁eaten	-11.4953
▁reactions	-11.4953
▁Bow	-11.4954
▁mathematics	-11.4954
▁Bio	-11.4955
▁remainder	-11.4955
ao	-11.4957
▁ti	-11.4957
▁Studies	-11.4958
▁militia	-11.4958
▁clan	-11.4959
▁88	-11.496
▁punish	-11.4961
show	-11.4966
▁sh	-11.4966
▁heap	-11.4969
▁appeals	-11.497
▁Using	-11.497
▁topics	-11.4971
▁rushing	-11.4972
tens	-11.4973
▁$15	-11.4977
▁shallow	-11.4979
▁scam	-11.4981
▁inequality	-11.4981
▁touching	-11.4985
.0%	-11.4986
▁badge	-11.4988
▁Woman	-11.4991
zing	-11.4993
bl	-11.4993
▁Bet	-11.4996
▁IBM	-11.4996
▁Brooks	-11.4998
▁1949	-11.4998
▁impulse	-11.4999
▁Todd	-11.5001
▁charming	-11.5002
▁masters	-11.5003
▁targeting	-11.5008
▁flock	-11.5008
▁tables	-11.5009
stream	-11.501
▁arrives	-11.5011
▁Bou	-11.5011
▁doubled	-11.5012
▁nationwide	-11.5012
50,000	-11.5012
▁Electric	-11.5017
▁marking	-11.5017
▁Entertainment	-11.5018
▁disc	-11.5021
▁stored	-11.5023
▁Newcastle	-11.5023
▁Obviously	-11.5024
▁0.1	-11.5026
▁sexually	-11.5026
▁floating	-11.5026
▁Tesla	-11.503
ité	-11.503
▁sustainable	-11.5032
ured	-11.5033
▁youngest	-11.5033
▁icon	-11.5034
▁GE	-11.5035
stand	-11.5035
▁exceed	-11.5037
▁controlling	-11.5037
▁hurricane	-11.5037
▁mortal	-11.5037
▁PO	-11.5038
▁caption	-11.5038
lash	-11.5039
inus	-11.504
▁guidelines	-11.5041
KE	-11.5041
▁spokesperson	-11.5048
▁demographic	-11.5048
▁Lower	-11.5049
▁whoever	-11.5054
OM	-11.5055
▁Ferguson	-11.5056
▁Lloyd	-11.5056
▁Rodriguez	-11.5056
▁reveals	-11.5057
▁1938	-11.5057
▁structural	-11.506
▁€	-11.506
▁Sol	-11.5062
▁collapsed	-11.5063
▁Sierra	-11.5064
▁convenient	-11.5064
▁FROM	-11.5064
▁Stan	-11.5065
▁Additionally	-11.5066
▁Et	-11.5066
▁Honor	-11.5072
▁cord	-11.5076
▁Pet	-11.5076
▁pe	-11.5077
▁seated	-11.5077
▁scar	-11.5077
▁breathing	-11.5078
rel	-11.5078
Ga	-11.5079
ito	-11.5083
▁assertion	-11.5084
▁sentences	-11.5086
▁interference	-11.5086
▁fitted	-11.5088
▁Hot	-11.5088
▁Stuart	-11.509
▁aboard	-11.509
▁Woods	-11.5092
▁Bristol	-11.5094
▁heels	-11.5095
▁Obamacare	-11.5097
▁Intel	-11.5097
active	-11.5098
▁clerk	-11.5101
▁mentally	-11.5101
SI	-11.5104
▁Region	-11.5108
lent	-11.511
▁balanced	-11.5112
▁purple	-11.5113
▁interact	-11.5113
gus	-11.5115
ished	-11.5116
▁Der	-11.5117
▁observations	-11.5118
▁scrutiny	-11.512
▁Pentagon	-11.5124
▁commerce	-11.5124
.25	-11.5125
▁cart	-11.5126
▁Ronald	-11.5127
tty	-11.513
▁Arkansas	-11.5132
▁Vancouver	-11.5132
▁pressing	-11.5132
▁strictly	-11.5132
▁lean	-11.5134
uge	-11.5135
▁Roosevelt	-11.5135
2,000	-11.5138
▁Kor	-11.5141
lio	-11.5141
▁boards	-11.5143
▁subsidies	-11.5143
▁patience	-11.5143
▁median	-11.5144
▁PL	-11.5145
▁buses	-11.5146
▁merger	-11.5146
▁touchdown	-11.5146
▁artillery	-11.5147
hit	-11.5149
▁2004,	-11.5149
¦	-11.515
▁00	-11.5151
▁Emma	-11.5152
ces	-11.5152
▁Almost	-11.5153
▁Neil	-11.5154
▁fires	-11.5155
▁4-	-11.5158
▁thumb	-11.5158
▁Furthermore	-11.5159
▁Med	-11.5161
▁Lucas	-11.5161
▁coaching	-11.5164
▁punished	-11.5165
Cha	-11.5169
▁Wing	-11.5169
▁Transportation	-11.5171
iah	-11.5171
tine	-11.5172
▁extending	-11.5173
▁zoo	-11.5174
▁Arabic	-11.5174
att	-11.5175
assi	-11.5176
▁writings	-11.5179
▁shoe	-11.5185
▁meantime	-11.5186
▁scare	-11.5186
▁Late	-11.5187
▁shine	-11.5187
▁organised	-11.5189
prov	-11.5191
still	-11.5197
▁READ	-11.5198
▁simultaneously	-11.5199
▁appetite	-11.52
▁sheriff	-11.52
founder	-11.5201
▁Kin	-11.5202
▁Lieutenant	-11.5202
▁decisive	-11.5203
▁advertisement	-11.5203
▁assumption	-11.5204
▁Peninsula	-11.5204
▁ESPN	-11.5204
▁humour	-11.5204
▁knight	-11.5205
serv	-11.5206
yon	-11.5208
▁reaches	-11.5209
▁chips	-11.5213
▁neglect	-11.5213
▁ultra	-11.5216
▁penalties	-11.5216
cular	-11.5216
own	-11.5216
▁renewable	-11.5217
▁→	-11.5218
dec	-11.5218
▁Lab	-11.5219
▁obligation	-11.5219
▁Venice	-11.5224
▁Eagles	-11.5225
cas	-11.5227
▁seldom	-11.5227
▁Ap	-11.5227
▁skirt	-11.5227
▁ancestors	-11.5228
▁Thor	-11.5233
black	-11.5234
▁juice	-11.5235
BR	-11.5237
pid	-11.5238
▁WW	-11.5238
▁Hawaii	-11.5238
▁drone	-11.524
VE	-11.5241
▁republican	-11.5241
▁98	-11.5242
▁epic	-11.5242
▁Theater	-11.5244
▁bush	-11.5244
▁101	-11.5244
▁supposedly	-11.5244
▁guards	-11.5245
▁rounds	-11.5246
PD	-11.5249
phon	-11.525
▁surviving	-11.525
ines	-11.525
tax	-11.5251
▁gr	-11.5252
door	-11.5253
oul	-11.5254
Here	-11.5254
▁investigated	-11.5255
▁namely	-11.5257
▁establishing	-11.5259
▁seeks	-11.526
▁liar	-11.5261
After	-11.5264
▁Danny	-11.5265
▁harassment	-11.5266
▁sont	-11.5267
▁vague	-11.5267
▁heroes	-11.5267
▁nights	-11.5268
▁Gay	-11.5272
▁Berkeley	-11.5273
▁Industry	-11.5273
▁earnest	-11.5274
▁Cathedral	-11.5277
▁Uncle	-11.5277
▁gates	-11.5278
▁yields	-11.5279
▁Digital	-11.5283
Fr	-11.5285
▁1955	-11.5286
nus	-11.5286
▁regiment	-11.5287
your	-11.5287
▁mod	-11.5287
▁ALPHA	-11.5289
▁Pakistani	-11.529
▁justified	-11.5291
igo	-11.5293
▁700	-11.5295
▁Nigerian	-11.5296
▁Dem	-11.5301
▁premier	-11.5302
CL	-11.5302
three	-11.5303
▁strategies	-11.5304
Look	-11.5305
duct	-11.5307
▁skilled	-11.531
▁robust	-11.5312
▁platforms	-11.5313
▁kindness	-11.5313
▁arrow	-11.5313
▁inch	-11.5314
▁exile	-11.5315
▁splendid	-11.5316
DO	-11.5316
▁:)	-11.5317
eck	-11.5317
▁advantages	-11.5318
SU	-11.5319
▁manual	-11.5319
▁devastating	-11.532
▁Want	-11.532
▁Private	-11.5323
▁Chan	-11.5323
▁Gene	-11.5323
emi	-11.5323
▁exploration	-11.5323
▁110	-11.5324
▁Swift	-11.5328
▁lion	-11.5328
▁wasted	-11.5329
first	-11.533
▁religions	-11.5331
▁Brits	-11.5332
▁gravity	-11.5335
▁developments	-11.5336
▁RELATED	-11.5339
▁Richmond	-11.5339
▁bacteria	-11.534
▁merchant	-11.5342
▁Form	-11.5343
▁lighting	-11.5345
▁rises	-11.5346
ination	-11.5347
▁Karen	-11.5348
big	-11.5348
▁Drug	-11.5351
▁incorporated	-11.5351
agh	-11.5352
▁lacking	-11.5354
▁passionate	-11.5354
▁grid	-11.5354
▁credibility	-11.5355
ges	-11.5355
tho	-11.5355
▁refuge	-11.5355
DI	-11.5355
government	-11.5356
▁Production	-11.5357
▁conversations	-11.5358
member	-11.5358
▁brow	-11.5358
▁courtesy	-11.5358
▁rental	-11.5359
▁stretched	-11.5359
ress	-11.5362
order	-11.5362
▁pat	-11.5365
▁Fortune	-11.5367
Je	-11.5367
▁GOD	-11.5367
▁sensation	-11.5368
▁Fish	-11.5368
▁infinite	-11.5368
Sp	-11.537
▁collision	-11.537
▁AC	-11.5371
▁cleaning	-11.5372
▁variable	-11.5373
▁dire	-11.5377
uma	-11.5378
▁Apollo	-11.5379
▁Bun	-11.5379
why	-11.538
▁dislike	-11.5381
▁guardian	-11.5381
▁Edinburgh	-11.5382
▁wreck	-11.5382
▁partisan	-11.5383
▁militants	-11.5384
▁Set	-11.5386
▁tribal	-11.5386
▁binding	-11.5388
mod	-11.5389
court	-11.539
▁collecting	-11.5391
▁questioning	-11.5393
▁Fig	-11.5394
IO	-11.5395
▁idle	-11.5396
▁1957	-11.5397
▁tele	-11.5399
▁successive	-11.54
Are	-11.5401
HS	-11.5401
▁accounting	-11.5402
▁RA	-11.5402
▁accordingly	-11.5405
▁Saints	-11.5406
▁flame	-11.5406
tam	-11.5408
▁startup	-11.541
▁genuinely	-11.5411
▁bl	-11.5413
▁Grey	-11.5417
▁enhance	-11.5417
bbing	-11.5417
▁operational	-11.542
▁owing	-11.542
▁summary	-11.5421
▁info	-11.5421
▁guitarist	-11.5423
▁Montgomery	-11.5425
▁Guinea	-11.5425
▁buzz	-11.5426
rink	-11.5426
▁climbed	-11.5428
▁imagined	-11.5429
▁Cer	-11.543
▁minorities	-11.543
▁soap	-11.5431
▁magnificent	-11.5433
▁0.5	-11.5434
▁classroom	-11.5434
▁Katie	-11.5434
£	-11.5436
nick	-11.5439
▁Nas	-11.544
▁caution	-11.5442
cil	-11.5445
▁steadily	-11.5448
▁1918	-11.5449
vote	-11.545
▁stealing	-11.5451
▁Representatives	-11.5452
▁certificate	-11.5452
MAN	-11.5453
▁boundary	-11.5456
▁1954	-11.5456
▁accomplish	-11.5456
bear	-11.5459
▁Crime	-11.546
▁tends	-11.546
▁Hawk	-11.546
▁privately	-11.5461
▁commented	-11.5465
▁offended	-11.5466
▁leur	-11.5467
▁diagnosed	-11.5468
eal	-11.5468
▁cared	-11.5469
▁CAN	-11.5469
▁cope	-11.5469
ush	-11.5469
▁($1	-11.5469
▁canoe	-11.5469
▁adjacent	-11.5472
▁Angel	-11.5472
▁Reich	-11.5474
▁rated	-11.5475
mid	-11.5479
▁sneak	-11.548
▁mistress	-11.548
fort	-11.5482
TI	-11.5484
▁Brady	-11.5485
▁fastest	-11.5486
▁interviewed	-11.5487
▁portrayed	-11.5488
▁realm	-11.5491
tree	-11.5491
▁accessible	-11.5491
▁neighbourhood	-11.5492
▁inherited	-11.5492
▁conflicts	-11.5492
▁nevertheless	-11.5495
▁salaries	-11.5496
▁Rachel	-11.55
firm	-11.5501
▁profitable	-11.5501
▁venue	-11.5502
▁happily	-11.5503
▁rookie	-11.5503
▁Safety	-11.5504
SH	-11.5508
▁syndrome	-11.5511
▁Pete	-11.5511
▁Box	-11.5512
base	-11.5512
mouth	-11.5513
▁avec	-11.5514
▁Flight	-11.5515
▁seeds	-11.5516
▁screaming	-11.5517
zza	-11.5517
▁Ring	-11.5517
SD	-11.5518
▁lib	-11.5518
ddy	-11.552
▁eleven	-11.5522
▁punch	-11.5522
NYSE	-11.5522
▁bien	-11.5522
▁solemn	-11.5524
▁dramatically	-11.5525
▁sounded	-11.5527
▁runway	-11.5528
feld	-11.553
▁experimental	-11.553
400	-11.5532
ern	-11.5537
▁horizon	-11.5542
sub	-11.5543
▁Shaw	-11.5544
▁stir	-11.5545
▁Kyle	-11.5545
▁outlets	-11.5546
▁Guide	-11.5549
▁Hughes	-11.555
▁situated	-11.5551
▁unemployed	-11.5552
profit	-11.5552
▁Reg	-11.5555
▁mosque	-11.5555
▁Flor	-11.5555
▁similarly	-11.5555
III	-11.5557
▁laying	-11.5558
osis	-11.5559
TING	-11.5559
▁passport	-11.5562
▁Operation	-11.5562
▁surplus	-11.5563
▁athlete	-11.5563
Black	-11.5563
▁Dems	-11.5565
aught	-11.5565
▁ally	-11.5569
▁Map	-11.557
▁Bobby	-11.5571
erate	-11.5571
▁discount	-11.5572
▁compact	-11.5574
▁hypothesis	-11.5575
▁hurry	-11.5579
tell	-11.558
▁lamp	-11.5582
▁SU	-11.5582
EAR	-11.5582
tti	-11.5583
turn	-11.5585
▁NU	-11.5586
▁vacuum	-11.5587
ality	-11.5587
gno	-11.5587
▁prescription	-11.5587
▁AB	-11.5588
▁TIME	-11.5589
▁tar	-11.5589
▁owe	-11.559
▁tension	-11.5593
▁plates	-11.5594
▁struggles	-11.5594
▁AG	-11.5594
1)	-11.5599
▁Chronicle	-11.5599
▁dec	-11.5599
▁securities	-11.5602
change	-11.5604
uter	-11.5604
oy	-11.5604
▁forgive	-11.5604
▁Urban	-11.5607
▁>	-11.5608
▁ports	-11.561
▁1936	-11.561
▁invaded	-11.561
▁Vatican	-11.561
▁dem	-11.5611
▁Full	-11.5613
ère	-11.5613
▁Portland	-11.5615
▁(1)	-11.5617
▁Leo	-11.5619
▁1952	-11.5622
dian	-11.5623
▁flames	-11.5623
ural	-11.5623
temp	-11.5624
▁defender	-11.5625
▁motivation	-11.5626
▁credited	-11.5627
▁proceeds	-11.5627
▁sketch	-11.5629
ias	-11.5631
▁TE	-11.5632
▁institutional	-11.5632
▁reads	-11.5634
▁angel	-11.5634
▁deposit	-11.5635
▁okay	-11.5635
Life	-11.5636
▁frontier	-11.5638
▁Swa	-11.564
▁Store	-11.564
liness	-11.5641
▁preventing	-11.5642
▁Isaac	-11.5642
▁sy	-11.5644
▁Sandy	-11.5644
▁verb	-11.5645
orn	-11.5646
▁delivering	-11.5646
tha	-11.5648
▁Systems	-11.5651
▁chemistry	-11.5651
▁chains	-11.5654
▁bargain	-11.5655
▁trips	-11.5656
▁1933	-11.5656
▁Andre	-11.5657
EG	-11.5658
handed	-11.5658
▁Turks	-11.5658
±	-11.5658
▁Beau	-11.5659
▁Based	-11.5659
Pe	-11.5661
gers	-11.5663
▁(8	-11.5664
dam	-11.5664
▁subscription	-11.5667
DER	-11.5667
▁abstract	-11.567
▁quantum	-11.5671
fect	-11.5674
▁Jen	-11.5677
▁::	-11.5677
▁Jamie	-11.5678
▁()	-11.568
▁swift	-11.568
▁abused	-11.5681
▁Xi	-11.5682
▁serial	-11.5683
▁styles	-11.5684
▁Room	-11.5684
▁compounds	-11.5684
ote	-11.5684
▁jumping	-11.5686
▁Fin	-11.5687
▁Sc	-11.5687
▁clergy	-11.5688
▁PE	-11.5688
▁9/11	-11.569
▁Quebec	-11.569
▁meta	-11.5692
▁transformed	-11.5692
▁fiber	-11.5693
▁registration	-11.5695
▁Kanye	-11.5696
▁circles	-11.5696
▁Sciences	-11.5696
▁insane	-11.5699
▁Date	-11.57
▁referee	-11.5701
▁=4=,	-11.5703
▁Regional	-11.5703
▁Mind	-11.5705
▁Someone	-11.5707
▁$50	-11.5707
▁peers	-11.5707
▁specialist	-11.5708
iga	-11.5709
▁nightmare	-11.5711
▁marker	-11.5712
Mon	-11.5713
▁soup	-11.5715
tage	-11.5716
▁propose	-11.572
▁affects	-11.5721
GE	-11.5721
▁wrap	-11.5723
▁dominate	-11.5724
▁Blo	-11.5725
▁×	-11.5725
▁motivated	-11.5726
▁forests	-11.5727
▁embarrassing	-11.5728
▁donated	-11.5731
▁Coll	-11.5731
▁precise	-11.5732
▁Palin	-11.5732
▁foe	-11.5733
nne	-11.5735
urge	-11.5735
▁Mall	-11.5736
▁disclosed	-11.5736
nium	-11.5737
▁participated	-11.5738
▁Europeans	-11.5741
▁scholarship	-11.5741
▁installation	-11.5744
▁Gaza	-11.5746
emp	-11.5748
▁bun	-11.575
▁87	-11.5751
ury	-11.5753
▁Storm	-11.5753
▁stairs	-11.5754
▁ya	-11.5755
▁historians	-11.5756
▁capitalism	-11.5756
▁substitute	-11.5761
▁Powell	-11.5762
▁preliminary	-11.5763
▁travelled	-11.5765
▁mistaken	-11.5766
▁Except	-11.5768
▁Liz	-11.5769
length	-11.577
▁rag	-11.5771
▁kin	-11.5772
▁Eli	-11.5772
▁natives	-11.5774
▁rings	-11.5776
▁transactions	-11.5777
▁Salt	-11.5778
▁blaze	-11.5778
▁judgement	-11.5779
▁listing	-11.5783
▁variations	-11.5784
▁RO	-11.5787
arily	-11.5788
▁gorgeous	-11.5788
▁chiefly	-11.5791
ú	-11.5792
▁strangers	-11.5792
▁gro	-11.5792
▁temporarily	-11.5796
SO	-11.5802
anna	-11.5804
▁persuade	-11.5806
▁ethics	-11.5809
3,000	-11.581
▁survivors	-11.5811
▁gently	-11.5814
color	-11.5814
Thank	-11.5815
▁81	-11.5815
▁missions	-11.5815
rose	-11.5816
▁thunder	-11.5816
los	-11.5819
▁engaging	-11.582
▁amateur	-11.582
cess	-11.5822
▁1914	-11.5823
▁glimpse	-11.5824
ying	-11.5824
▁vent	-11.5825
brand	-11.5826
▁rod	-11.5827
▁admiration	-11.5828
▁86	-11.5828
▁helicopter	-11.5829
"--	-11.583
tent	-11.5832
script	-11.5832
▁fortunate	-11.5834
▁presumably	-11.5835
▁confined	-11.5835
▁coll	-11.5837
▁farming	-11.5837
▁wireless	-11.5838
public	-11.5838
▁characterized	-11.5839
▁flee	-11.584
▁=3=,	-11.584
▁classification	-11.5841
▁wheels	-11.5841
▁broker	-11.5841
▁Reform	-11.5841
▁helmet	-11.5843
▁orchestra	-11.5845
▁Florence	-11.5845
▁runner	-11.5845
▁Bas	-11.5846
thing	-11.5846
▁flows	-11.5847
▁fait	-11.5847
▁Easter	-11.5851
flu	-11.5851
▁borrow	-11.5852
▁84	-11.5852
dr	-11.5854
▁abundant	-11.5857
▁Something	-11.5857
▁Authorities	-11.5857
anta	-11.5858
eon	-11.5859
▁Dark	-11.5864
▁FC	-11.5865
▁79	-11.5865
▁inferior	-11.5865
▁sporting	-11.5866
mie	-11.5866
iva	-11.5867
▁cru	-11.5873
▁apology	-11.5873
▁tensions	-11.5874
▁Colin	-11.5875
hra	-11.5876
▁rubber	-11.5878
▁0.3	-11.5878
▁assisted	-11.5878
▁Link	-11.5879
▁Fat	-11.588
▁bankrupt	-11.5882
▁hollow	-11.5882
voir	-11.5882
▁marched	-11.5884
▁Br	-11.5886
TON	-11.5887
▁ty	-11.5887
▁cancel	-11.5889
▁1953	-11.5889
Pre	-11.589
ground	-11.5891
astic	-11.5891
atur	-11.5893
▁diameter	-11.5894
▁spy	-11.5894
▁donors	-11.5895
mother	-11.5896
fold	-11.59
nik	-11.59
▁workforce	-11.5904
▁patron	-11.5905
▁borrowing	-11.5906
▁animated	-11.5906
▁cinema	-11.5906
aid	-11.5906
BS	-11.5907
LD	-11.5907
▁congress	-11.5908
▁Sudan	-11.5909
▁assists	-11.5911
ways	-11.5912
▁polling	-11.5912
▁Islamist	-11.5913
▁Universal	-11.5914
ffer	-11.5915
▁Imp	-11.5916
▁frankly	-11.5917
▁Para	-11.5917
▁Romans	-11.5917
▁addiction	-11.592
▁180	-11.5922
▁Communications	-11.5923
▁debates	-11.5924
▁Mir	-11.5925
▁89	-11.5928
▁rub	-11.5929
ovic	-11.5929
0.00	-11.593
▁Th	-11.593
▁Montreal	-11.5931
▁Chu	-11.5932
▁Lynch	-11.5933
▁canal	-11.5934
▁authentic	-11.5935
▁Securities	-11.5939
vas	-11.594
▁0.2	-11.5942
▁variation	-11.5942
▁97	-11.5945
▁manners	-11.5946
▁descended	-11.5948
▁shutdown	-11.5948
▁philosophical	-11.5949
bul	-11.5949
▁blaming	-11.5951
ought	-11.5952
▁Bol	-11.5952
▁Industrial	-11.5952
▁nationalist	-11.5953
▁translate	-11.5954
▁nearer	-11.5954
▁pine	-11.5954
odo	-11.5955
▁13.	-11.5955
▁Buffalo	-11.5955
▁frustration	-11.5955
phi	-11.5956
bil	-11.5959
▁flip	-11.5959
▁Sy	-11.5959
▁condo	-11.596
▁clay	-11.5962
plus	-11.5963
hot	-11.5965
pac	-11.5965
▁grants	-11.5966
UD	-11.5969
▁96	-11.5969
▁innovative	-11.5972
▁ninth	-11.5972
▁navy	-11.5972
▁83	-11.5972
▁Hat	-11.5976
gt	-11.5977
▁contributing	-11.598
hor	-11.598
▁din	-11.5981
▁glasses	-11.5982
▁swear	-11.5982
▁contend	-11.5983
▁Baptist	-11.5987
▁blown	-11.5988
bach	-11.599
▁Kay	-11.5991
rine	-11.5995
▁Talk	-11.5998
bot	-11.5999
▁Armed	-11.5999
come	-11.6
▁swim	-11.6001
▁connecting	-11.6001
▁Mol	-11.6006
▁Kirk	-11.6008
▁Banks	-11.6008
▁boo	-11.6008
▁phenomena	-11.6009
▁Cla	-11.601
▁Henri	-11.601
mun	-11.6011
pound	-11.6012
▁reasoning	-11.6014
ession	-11.6015
▁Ker	-11.6021
▁hopeful	-11.6021
▁Officials	-11.6021
▁spelling	-11.6021
▁brigade	-11.6022
▁Wallace	-11.6022
▁finest	-11.6023
▁interrupted	-11.6023
DP	-11.6025
▁Must	-11.6026
▁Gibson	-11.6026
OP	-11.6027
section	-11.6028
▁suggestions	-11.6028
IF	-11.6029
staff	-11.6032
gio	-11.6032
▁apt	-11.6033
▁acute	-11.6034
quality	-11.6034
▁Latino	-11.6035
LP	-11.6036
pul	-11.6038
▁Bangladesh	-11.6038
▁urgent	-11.6039
▁Members	-11.6039
▁beast	-11.6039
▁gaze	-11.6041
▁audiences	-11.6041
rash	-11.6042
▁(7	-11.6042
▁Stanford	-11.6043
▁manifest	-11.6043
▁mathematician	-11.6047
pal	-11.6048
space	-11.6049
▁intentions	-11.6051
▁pensions	-11.6052
▁fitting	-11.6052
▁Dy	-11.6052
▁Porter	-11.6054
▁fruits	-11.6056
▁Liberty	-11.6056
▁Gilbert	-11.6058
lea	-11.6059
guard	-11.606
▁Chase	-11.606
▁tra	-11.6061
▁.....	-11.6061
▁Rad	-11.6061
▁loads	-11.6061
buy	-11.6063
Trump	-11.6065
▁intend	-11.6066
UK	-11.607
ggy	-11.6072
"?	-11.6072
▁2001,	-11.6074
▁grows	-11.6074
billion	-11.6075
nation	-11.6077
▁dash	-11.6078
▁Confederate	-11.608
2016	-11.6081
▁shouting	-11.6081
▁editors	-11.6083
▁disclosure	-11.6084
max	-11.6086
mut	-11.6087
▁banner	-11.6088
lated	-11.6089
▁robbery	-11.6091
rent	-11.6091
▁Dal	-11.6093
pens	-11.6093
▁Vincent	-11.6095
▁Beat	-11.6096
▁endure	-11.6099
▁Audi	-11.6101
▁Bart	-11.6102
Ab	-11.6103
▁Close	-11.6105
eight	-11.6106
▁laughter	-11.6109
▁Commerce	-11.6109
▁Spencer	-11.6109
▁mansion	-11.6109
▁poems	-11.611
▁Plant	-11.6111
PHOTOS	-11.6111
▁Dear	-11.6112
ITY	-11.6116
▁MAN	-11.6119
.............	-11.6121
▁stressed	-11.6121
lk	-11.6122
▁unprecedented	-11.6123
▁Large	-11.6124
shaw	-11.6125
μ	-11.6126
ici	-11.6126
last	-11.6127
▁ONE	-11.6128
▁arise	-11.6129
▁slept	-11.613
▁Race	-11.6131
▁crawl	-11.6135
ere	-11.6135
vil	-11.6137
▁portray	-11.6138
▁conceal	-11.6138
jun	-11.6139
▁marble	-11.6139
▁Lions	-11.6141
▁mag	-11.6143
▁workplace	-11.6143
ddle	-11.6143
aver	-11.6144
▁economists	-11.6144
▁Cel	-11.6145
onia	-11.6146
▁Bern	-11.6151
800	-11.6151
▁intensity	-11.6151
imate	-11.6151
▁bro	-11.6153
▁gesture	-11.6155
inder	-11.616
▁spear	-11.616
▁Sunni	-11.6163
▁dwell	-11.6163
FT	-11.6167
▁lonely	-11.6168
▁Gospel	-11.6168
▁Qatar	-11.6168
▁faire	-11.617
▁Poll	-11.6171
EP	-11.6171
▁Majesty	-11.6172
▁checking	-11.6173
▁Bradley	-11.6174
▁drops	-11.6176
mad	-11.6179
▁Mountains	-11.6179
▁Tur	-11.618
▁sins	-11.6182
▁psycho	-11.6182
▁Testament	-11.6185
▁HA	-11.6185
▁schemes	-11.6186
▁interaction	-11.6187
/8	-11.6189
IX	-11.619
▁lyrics	-11.6193
▁Ship	-11.6193
▁cho	-11.6195
▁Bryan	-11.6197
▁FIFA	-11.6198
▁LONDON	-11.6198
▁Yorkshire	-11.6198
rite	-11.6199
▁CE	-11.6201
▁frightened	-11.6203
▁Deep	-11.621
▁stimulus	-11.621
▁Either	-11.621
▁quantities	-11.621
▁Brothers	-11.6212
▁varying	-11.6214
▁beds	-11.6216
▁Works	-11.6217
wear	-11.6219
▁costly	-11.6222
▁garbage	-11.6223
lyn	-11.6225
VA	-11.6225
▁Kane	-11.6227
▁Celtic	-11.6228
dling	-11.6229
▁motive	-11.6229
▁satisfy	-11.623
▁Duchess	-11.6232
▁Kha	-11.6234
ê	-11.6235
▁Est	-11.6235
cel	-11.6236
▁Photograph	-11.6237
▁Remain	-11.6238
uel	-11.6238
▁iconic	-11.624
▁accustomed	-11.624
▁130	-11.6242
▁Ry	-11.6242
▁bonus	-11.6243
▁ranking	-11.6244
▁maid	-11.6245
itive	-11.6245
ema	-11.6251
▁Cowboys	-11.6253
▁nonprofit	-11.6254
▁highlights	-11.6256
▁VA	-11.6256
▁2007.	-11.6259
▁municipal	-11.6259
▁Rooney	-11.6261
▁conclude	-11.6262
▁highlight	-11.6262
suit	-11.6262
▁dirt	-11.6262
▁Butler	-11.6264
▁edited	-11.6266
▁bride	-11.6267
▁colours	-11.6267
▁Apart	-11.6269
▁urging	-11.627
logy	-11.6271
▁Stalin	-11.6273
hom	-11.6275
▁curb	-11.6278
▁inspection	-11.6278
▁ethical	-11.6279
▁diesel	-11.6281
earn	-11.6282
rest	-11.6283
▁Defence	-11.6283
outs	-11.6283
▁cre	-11.6283
▁filmed	-11.6284
▁Foster	-11.6284
▁manufactured	-11.6284
lb	-11.6287
▁GP	-11.6287
ject	-11.6288
▁hol	-11.6291
▁undermine	-11.6292
▁likewise	-11.6293
▁Def	-11.6293
▁2.5	-11.6294
▁Similarly	-11.6294
inc	-11.6297
▁leaning	-11.6297
▁2000,	-11.6297
▁Jun	-11.6298
▁Rogers	-11.63
▁Pence	-11.63
ska	-11.6301
▁sigh	-11.6301
▁kindly	-11.6301
▁Diana	-11.6302
▁Metropolitan	-11.6308
▁lied	-11.6309
LL	-11.6311
▁Shares	-11.6312
▁91	-11.6314
ICE	-11.6316
▁quarterly	-11.6317
▁absorbed	-11.6317
▁Pala	-11.6319
imi	-11.6321
pop	-11.6323
▁poster	-11.6325
count	-11.6325
▁Julia	-11.6325
▁accommodation	-11.6325
▁authorized	-11.6327
▁adequate	-11.6327
OUR	-11.6329
▁admire	-11.6329
▁metric	-11.6329
tru	-11.633
▁Andrea	-11.6331
▁gig	-11.6334
▁brains	-11.6337
rag	-11.6339
isi	-11.6339
▁Ny	-11.634
▁Mobile	-11.634
▁lend	-11.6344
AB	-11.6344
▁outline	-11.6346
WA	-11.6351
lers	-11.6353
▁Single	-11.6353
▁pledged	-11.6354
▁veto	-11.6356
▁Janet	-11.6357
friend	-11.6357
▁developer	-11.6358
ulate	-11.6359
▁hammer	-11.6359
tered	-11.636
▁scary	-11.636
speaking	-11.6361
▁Watcher	-11.6362
▁wounds	-11.6363
▁ram	-11.6365
pack	-11.6367
▁1937	-11.6368
▁Orlando	-11.6368
▁entertaining	-11.6369
photos	-11.637
▁detained	-11.6371
▁beard	-11.6373
2014	-11.6374
▁Vote	-11.6378
pel	-11.6379
lé	-11.6381
▁lu	-11.6381
▁Qua	-11.6381
▁declining	-11.6381
▁immune	-11.6381
▁applying	-11.6381
▁Looks	-11.6382
▁farms	-11.6383
▁deliberate	-11.6383
▁inning	-11.6384
▁consist	-11.6384
▁Raj	-11.6385
▁Cardinal	-11.6385
▁whistle	-11.6385
▁humanitarian	-11.6386
▁Wy	-11.6387
▁hu	-11.639
▁indicator	-11.639
▁wheat	-11.639
▁Congressional	-11.6391
sports	-11.6393
▁Made	-11.6397
▁machinery	-11.6398
▁Border	-11.6398
▁varieties	-11.6398
▁affecting	-11.6402
▁hosting	-11.6402
▁trades	-11.6402
▁Shin	-11.6402
▁wool	-11.6402
▁Apparently	-11.6403
lid	-11.6405
▁sophisticated	-11.6407
▁Mercedes	-11.6407
▁18-	-11.6407
▁Arnold	-11.6408
▁sued	-11.6409
▁Commander	-11.6409
▁dense	-11.6409
rad	-11.641
▁Environmental	-11.6411
▁40%	-11.6411
▁trapped	-11.6412
▁physicist	-11.6415
speed	-11.6415
▁Marcus	-11.6416
▁08	-11.6416
▁inappropriate	-11.6419
▁Iceland	-11.642
▁aftermath	-11.642
-17	-11.6421
▁nous	-11.6421
▁displays	-11.6422
▁brass	-11.6423
▁Sox	-11.6424
track	-11.6426
▁gaming	-11.6429
fit	-11.6432
lect	-11.6433
▁tasks	-11.6436
▁Toyota	-11.6437
▁Cons	-11.6438
European	-11.6439
imo	-11.6441
INE	-11.6441
‘	-11.6441
▁governed	-11.6442
cum	-11.6443
hart	-11.6446
▁weaker	-11.6447
ienne	-11.6447
▁Hans	-11.645
UL	-11.645
▁Case	-11.6451
▁pupils	-11.6452
▁Aunt	-11.6455
▁Ancient	-11.646
▁accountable	-11.6461
▁carriers	-11.6463
gene	-11.6463
SS	-11.6463
▁deer	-11.6463
▁casting	-11.6464
▁demonstration	-11.6465
▁Ter	-11.6466
▁rapper	-11.6467
▁definite	-11.6468
▁criteria	-11.6468
COM	-11.6468
▁ward	-11.6469
▁Titan	-11.6471
Te	-11.6472
▁chemicals	-11.6472
▁Rand	-11.6473
heim	-11.6474
▁conductor	-11.6475
▁=2=,	-11.6476
▁Leonard	-11.6477
▁purchases	-11.6478
▁altered	-11.6478
▁confront	-11.6479
▁bless	-11.6479
▁imported	-11.6479
▁advisor	-11.648
▁Zu	-11.6484
▁inspire	-11.6485
aut	-11.6485
▁distinctive	-11.6485
▁Lor	-11.6487
▁adjusted	-11.649
▁Wells	-11.6491
▁participating	-11.6494
▁poison	-11.6494
▁Eight	-11.6495
▁planted	-11.6495
▁(2)	-11.6496
lac	-11.6496
▁Animal	-11.6499
▁chin	-11.6501
▁exhausted	-11.6502
▁Tin	-11.6502
▁1951	-11.6502
road	-11.6502
▁Cle	-11.6504
hat	-11.6505
▁Bert	-11.6507
▁Thanksgiving	-11.6507
▁victories	-11.6507
▁sheer	-11.6508
▁ru	-11.6509
cot	-11.6509
▁jokes	-11.6511
▁drought	-11.6511
▁mall	-11.6512
urg	-11.6514
▁convenience	-11.6516
▁elegant	-11.6516
▁fictional	-11.6518
▁corporation	-11.6518
West	-11.6519
▁Delta	-11.6519
▁pilots	-11.6521
▁financially	-11.6521
▁ur	-11.6523
▁NCAA	-11.6524
▁sta	-11.6525
▁Rs	-11.6527
▁poured	-11.6528
▁Warriors	-11.6528
▁Rico	-11.6529
race	-11.6529
▁apple	-11.653
▁1912	-11.6531
▁Die	-11.6532
▁arrogant	-11.6533
4,000	-11.6535
▁1)	-11.6535
▁potatoes	-11.6537
▁gra	-11.6538
▁anonymous	-11.654
hoe	-11.6542
▁Events	-11.6542
▁Wow	-11.6543
▁penny	-11.6546
▁bizarre	-11.6546
▁Boeing	-11.6546
▁Dennis	-11.6547
▁loses	-11.6547
ML	-11.655
step	-11.6551
▁Din	-11.6554
▁salad	-11.6555
nte	-11.6555
owner	-11.6556
▁expertise	-11.6557
▁interpret	-11.6557
▁appealing	-11.6558
▁settlers	-11.6558
▁Schu	-11.6559
▁curiosity	-11.6559
▁psychology	-11.6559
▁vow	-11.6561
▁teenage	-11.6562
▁volatility	-11.6564
ride	-11.6564
!--	-11.6566
▁crowds	-11.6567
▁reminder	-11.6567
acle	-11.6568
▁revival	-11.6568
▁cancelled	-11.6569
tract	-11.6571
▁knot	-11.6571
wy	-11.6572
▁cardinal	-11.6573
▁conducting	-11.6573
▁ed	-11.6574
▁dia	-11.6575
ij	-11.6578
és	-11.6579
▁5%	-11.658
▁settlements	-11.6581
▁influences	-11.6586
▁graduated	-11.6586
▁140	-11.6586
▁shining	-11.6586
duc	-11.6587
▁shifted	-11.6588
▁92	-11.6591
▁encountered	-11.6594
▁avoiding	-11.6594
▁entity	-11.6595
▁countless	-11.6596
0&	-11.6598
▁symbols	-11.6599
▁organisations	-11.6599
▁duo	-11.6601
▁Franco	-11.6602
wl	-11.6604
ota	-11.6607
▁Wonder	-11.6609
▁cr	-11.6609
stan	-11.6612
eman	-11.6615
▁cant	-11.6617
alia	-11.6619
--_	-11.6623
▁blacks	-11.6624
▁ideological	-11.6625
▁prim	-11.6627
▁Jobs	-11.6627
▁ref	-11.6628
▁comme	-11.6628
▁Rat	-11.6629
▁endeavour	-11.663
zel	-11.6632
▁violated	-11.6632
▁id	-11.6633
▁reinforce	-11.6633
kind	-11.6634
▁Smart	-11.6635
rier	-11.664
aux	-11.6641
▁conquered	-11.6641
actic	-11.6641
▁Gau	-11.6641
▁negotiating	-11.6643
Per	-11.6645
▁quarrel	-11.6645
▁blade	-11.6648
▁shaped	-11.6648
cop	-11.6648
▁assassination	-11.665
▁Luis	-11.6651
▁caring	-11.6651
▁Blood	-11.6652
AA	-11.6653
OO	-11.6654
▁gardens	-11.6655
▁exam	-11.6658
▁offshore	-11.666
▁Consumer	-11.6661
▁departed	-11.6661
▁factories	-11.6665
▁polar	-11.6666
alter	-11.6667
▁sue	-11.6668
▁comply	-11.6671
▁Ages	-11.6671
sville	-11.6671
▁Need	-11.6671
mul	-11.6672
▁160	-11.6672
▁viewing	-11.6672
▁Thai	-11.6675
▁ammunition	-11.6678
▁(9	-11.6679
▁Less	-11.6683
War	-11.6683
▁boxing	-11.6683
▁threaten	-11.6684
TY	-11.6685
▁Partners	-11.6687
▁raises	-11.6687
▁por	-11.6689
▁90%	-11.6689
▁honey	-11.6689
Bi	-11.669
▁$12	-11.669
▁bur	-11.6692
Ed	-11.6692
▁Tyler	-11.6693
NG	-11.6696
▁Biden	-11.6696
▁Hopefully	-11.6696
▁blend	-11.6697
standing	-11.6699
ucci	-11.6701
rio	-11.6702
▁Horse	-11.6702
▁regulators	-11.6702
▁editing	-11.6703
sel	-11.6703
▁Thomson	-11.6705
nit	-11.6705
▁locally	-11.6707
▁contents	-11.6709
▁samples	-11.6709
▁independently	-11.671
▁metals	-11.671
▁commissioned	-11.6714
▁Merc	-11.6714
RP	-11.6714
working	-11.6714
▁electro	-11.6716
▁lowered	-11.6719
▁Chile	-11.672
stick	-11.6721
6,000	-11.6721
tention	-11.6722
comp	-11.6724
ckle	-11.6725
▁revolutionary	-11.6726
▁announcing	-11.6727
▁persecution	-11.6727
▁firearms	-11.6728
▁Table	-11.6731
▁3,000	-11.6732
▁transparent	-11.6732
▁objection	-11.6734
logist	-11.6734
▁Wikipedia	-11.6735
Any	-11.6736
▁pricing	-11.6736
▁14.	-11.6736
▁threshold	-11.6736
▁ranch	-11.6737
▁gown	-11.6739
▁Cul	-11.6739
may	-11.6742
▁compassion	-11.6744
▁conservation	-11.6745
▁descendants	-11.6746
▁delays	-11.6746
▁Sport	-11.6747
▁denying	-11.6747
▁WILL	-11.6748
▁sacked	-11.6749
▁Chico	-11.675
▁gauge	-11.675
EM	-11.675
▁Movement	-11.6751
▁consumed	-11.6752
▁AI	-11.6753
▁undoubtedly	-11.6756
▁pastor	-11.6757
▁hunger	-11.6759
▁(10	-11.676
▁waist	-11.676
tab	-11.6761
._--	-11.6762
▁dock	-11.6763
▁essence	-11.6763
▁adjust	-11.6765
going	-11.6765
▁ignoring	-11.6768
▁reckless	-11.6768
▁kills	-11.6768
MT	-11.6771
organ	-11.6772
▁blew	-11.6772
▁awake	-11.6773
watcher	-11.6774
▁Alberta	-11.6774
▁Bau	-11.6775
rain	-11.6775
▁lasting	-11.6776
▁concepts	-11.6778
▁Corn	-11.6778
▁supper	-11.6778
▁greed	-11.6781
▁Isn	-11.6782
▁centres	-11.6783
▁1917	-11.6784
▁whispered	-11.6784
▁TH	-11.6785
▁Boys	-11.6786
▁elevated	-11.6787
▁trainer	-11.6788
CNN	-11.6788
html	-11.679
▁suited	-11.6791
▁feedback	-11.6792
▁conceived	-11.6793
utter	-11.6794
uni	-11.6794
▁devotion	-11.6794
▁Friends	-11.6795
▁conclusions	-11.6796
▁Admiral	-11.6796
▁horn	-11.6798
▁leverage	-11.6799
▁Jar	-11.68
▁northeast	-11.68
▁Pel	-11.6801
▁Peru	-11.6803
▁borrowed	-11.6805
▁sweeping	-11.6806
great	-11.6807
sea	-11.6808
liberal	-11.6809
uda	-11.6809
since	-11.6809
▁concentrated	-11.6812
yle	-11.6812
▁pm	-11.6814
▁ion	-11.6814
▁Fen	-11.6814
▁attraction	-11.6815
▁detention	-11.6817
▁combine	-11.6818
▁barrier	-11.6818
▁Girls	-11.6819
▁posed	-11.682
▁deposits	-11.6821
▁marginal	-11.6821
▁pending	-11.6822
▁NHL	-11.6823
▁mineral	-11.6828
uction	-11.6829
▁Classic	-11.683
▁deciding	-11.6831
Did	-11.6831
▁Nearly	-11.6832
▁lecture	-11.6832
▁princess	-11.6834
▁expose	-11.6835
▁paragraph	-11.6835
▁Otto	-11.6837
cis	-11.6839
nge	-11.6841
▁Visit	-11.6841
▁Sullivan	-11.6842
▁Glass	-11.6843
▁Pont	-11.6843
▁parish	-11.6843
friendly	-11.6844
responsibilities	-11.6844
FI	-11.6845
▁NI	-11.6846
▁beg	-11.6847
▁pill	-11.6847
lessness	-11.685
▁cottage	-11.6853
ool	-11.6853
▁straw	-11.6855
▁expectation	-11.6856
▁neighboring	-11.6858
Today	-11.686
▁Buddhist	-11.6862
▁Benedict	-11.6862
cie	-11.6862
▁bankers	-11.6862
▁airports	-11.6865
▁pork	-11.6865
▁Deal	-11.6866
▁Constantinople	-11.6867
FS	-11.6867
▁sheets	-11.6867
▁revealing	-11.6867
▁naming	-11.6867
▁colleague	-11.6868
▁erected	-11.6868
▁morality	-11.6871
▁educator	-11.6871
▁Politics	-11.6872
▁wagon	-11.6872
lves	-11.6875
▁costume	-11.6875
▁launching	-11.6877
ops	-11.6878
Min	-11.6878
otic	-11.6878
six	-11.688
▁hostage	-11.6882
▁wicked	-11.6883
nz	-11.6884
▁Southeast	-11.6884
▁rebound	-11.6884
▁Fashion	-11.6885
storm	-11.6886
▁airlines	-11.6887
▁Nat	-11.6888
▁tales	-11.6891
▁Edition	-11.6892
mos	-11.6893
▁batteries	-11.6894
live	-11.6895
▁depicted	-11.6895
▁gen	-11.6895
wash	-11.6896
▁accuse	-11.6896
except	-11.6896
▁trauma	-11.6897
iers	-11.6898
Ru	-11.69
▁secretly	-11.69
▁2)	-11.6902
▁quotes	-11.6903
nier	-11.6904
▁Castro	-11.6904
▁~	-11.6905
▁oak	-11.6906
▁declaring	-11.6907
▁indicating	-11.6907
▁primitive	-11.6907
▁Magic	-11.691
▁CB	-11.6911
▁2003,	-11.6913
▁cement	-11.6913
▁Luther	-11.6914
▁cock	-11.6915
ios	-11.6915
▁wrist	-11.6917
▁DJ	-11.692
▁IF	-11.6922
ony	-11.6923
rack	-11.6923
ced	-11.6923
▁focuses	-11.6924
Pi	-11.6924
----"	-11.6925
▁skull	-11.6926
▁Kon	-11.6926
▁implies	-11.6926
▁Reed	-11.6926
Fe	-11.6927
▁tooth	-11.6928
uh	-11.6928
income	-11.6928
▁Cab	-11.6928
▁landmark	-11.6929
▁WA	-11.693
▁idol	-11.6932
▁predecessor	-11.6933
▁proving	-11.6933
ards	-11.6934
▁offset	-11.6936
dell	-11.6936
▁sunshine	-11.6939
▁unconscious	-11.6939
▁Lie	-11.6942
▁Lords	-11.6944
▁Kit	-11.6946
▁worrying	-11.6946
▁seize	-11.6946
verse	-11.6947
nam	-11.6948
▁Harold	-11.6948
▁Caroline	-11.6949
▁ruins	-11.6951
▁Eye	-11.6952
▁Ghana	-11.6954
each	-11.6955
▁crews	-11.6955
enter	-11.6955
▁abilities	-11.6958
▁Asked	-11.696
cost	-11.6961
osa	-11.6961
▁PER	-11.6961
▁jaw	-11.6962
▁Manning	-11.6964
▁balloon	-11.6964
▁IRS	-11.6966
▁denomination	-11.6967
▁genes	-11.6967
▁DVD	-11.6967
▁bundle	-11.6967
▁Medal	-11.6969
▁priorities	-11.6969
▁technological	-11.6971
▁laptop	-11.6972
▁teens	-11.6973
hel	-11.6974
8,000	-11.6976
▁Return	-11.6978
▁subjected	-11.6979
▁Sab	-11.698
▁bishops	-11.698
wire	-11.6981
▁smallest	-11.6982
▁cannon	-11.6982
science	-11.6982
ION	-11.6984
▁worries	-11.6985
▁trunk	-11.6985
▁preference	-11.6986
▁Imagine	-11.6988
:15	-11.699
▁retailer	-11.6991
▁disk	-11.6992
▁collar	-11.6994
▁originated	-11.6997
▁inscription	-11.6997
▁atheist	-11.6997
▁24-	-11.6997
▁dive	-11.7001
▁rescued	-11.7002
▁cavalry	-11.7003
▁nursing	-11.7003
▁considers	-11.7004
▁strings	-11.7005
▁mines	-11.7006
eurs	-11.7007
▁Relations	-11.7008
▁exceptional	-11.7008
▁accidents	-11.701
ior	-11.7011
dies	-11.7011
▁washed	-11.7012
▁illustrate	-11.7012
▁violations	-11.7013
▁Yahoo	-11.7013
mbo	-11.7013
▁muscles	-11.7014
plo	-11.7017
▁Armstrong	-11.7017
▁obligations	-11.7017
▁spectacle	-11.7021
▁picks	-11.7022
sters	-11.7022
▁pizza	-11.7026
▁−	-11.7027
cco	-11.7028
▁Fr	-11.7028
▁93	-11.7029
ART	-11.7029
▁Mean	-11.703
▁reminds	-11.7031
▁delightful	-11.7036
▁unveiled	-11.7036
Col	-11.7036
▁Transport	-11.7039
▁climbing	-11.704
▁withdrew	-11.704
▁Collection	-11.7045
▁companions	-11.7047
eye	-11.7048
▁Know	-11.7049
▁ensuring	-11.7049
▁(“	-11.705
▁expressing	-11.7051
▁Born	-11.7052
▁Sau	-11.7053
▁occupy	-11.7056
▁functional	-11.7057
▁ditch	-11.7058
▁correspondent	-11.7059
hai	-11.7059
hearted	-11.706
▁donate	-11.706
Cr	-11.7063
▁accordance	-11.7064
Subscribe	-11.7066
▁disputed	-11.7067
▁capability	-11.7069
▁30%	-11.707
uli	-11.7071
▁Phillips	-11.7071
▁nurses	-11.7072
▁Tha	-11.7073
▁condemn	-11.7073
▁Enter	-11.7073
▁Netanyahu	-11.7077
▁Gla	-11.7077
▁Archbishop	-11.7081
▁preceding	-11.7081
▁unwilling	-11.7081
agan	-11.7082
tig	-11.7083
▁leak	-11.7085
▁envelope	-11.7086
pple	-11.7086
▁boycott	-11.7087
Bu	-11.7088
▁1932	-11.7088
▁assess	-11.7091
▁disposition	-11.7092
start	-11.7092
▁packet	-11.7094
▁benchmark	-11.7096
ega	-11.7096
▁contacted	-11.7097
▁contributor	-11.71
▁Ottawa	-11.71
▁governance	-11.7101
▁Pr	-11.7101
path	-11.7102
▁Mario	-11.7102
▁ces	-11.7103
BE	-11.7105
▁Lea	-11.7105
▁bang	-11.7106
▁initiatives	-11.7107
him	-11.7108
▁fairy	-11.7111
igh	-11.7112
▁rack	-11.7113
▁yourselves	-11.7114
▁alphabet	-11.7114
▁Sex	-11.7116
trop	-11.7117
▁messenger	-11.7118
▁Abbey	-11.7119
▁credible	-11.7121
▁refusal	-11.7123
social	-11.7123
▁Rosa	-11.7123
▁judged	-11.7125
▁Seems	-11.7125
▁Cri	-11.7127
▁Were	-11.7127
▁hazard	-11.7128
▁inmates	-11.7128
▁whip	-11.7129
tia	-11.713
▁94	-11.7131
grade	-11.7132
▁fin	-11.7132
▁renamed	-11.7134
▁Fra	-11.7135
▁allowance	-11.7135
▁Barb	-11.7135
▁=5=,	-11.7137
▁Palestine	-11.7137
▁pursuing	-11.7137
▁restoration	-11.7137
▁monarchy	-11.7137
▁sparked	-11.7138
tron	-11.714
▁olive	-11.7141
▁dip	-11.7141
▁advances	-11.7142
rill	-11.7143
▁Bab	-11.7144
WS	-11.7145
▁sixty	-11.7145
lton	-11.7145
▁coins	-11.7145
uous	-11.7146
Even	-11.7146
▁timber	-11.7146
eli	-11.7148
▁albums	-11.715
▁gratitude	-11.7151
▁spouse	-11.7151
rc	-11.7151
cm	-11.7152
▁stepping	-11.7155
Mad	-11.7155
oct	-11.7156
▁slaughter	-11.7156
Tri	-11.7158
▁dangers	-11.7159
ī	-11.716
sort	-11.7161
best	-11.7161
▁Cost	-11.7163
▁ambulance	-11.7165
▁Jessica	-11.7165
▁cy	-11.7165
▁clo	-11.7165
News	-11.7166
bie	-11.7168
rrell	-11.7169
▁initiated	-11.7169
▁Holmes	-11.717
ception	-11.7172
▁importantly	-11.7172
▁blank	-11.7172
▁Ant	-11.7173
▁documented	-11.7174
▁Prussia	-11.7175
▁donation	-11.7177
.75	-11.718
▁attendant	-11.7181
▁naive	-11.7181
▁statute	-11.7184
▁fools	-11.7184
▁Solomon	-11.7184
zon	-11.7185
▁implications	-11.7185
▁Population	-11.7188
final	-11.7189
▁socialism	-11.7189
▁Jake	-11.7189
▁disappointing	-11.7189
ASS	-11.719
gam	-11.719
▁Angela	-11.7191
▁Jets	-11.7191
chester	-11.7192
▁ph	-11.7192
bia	-11.7192
▁rhythm	-11.7192
ounce	-11.7193
sson	-11.7194
general	-11.7194
Du	-11.7195
▁attain	-11.7196
▁organs	-11.7196
think	-11.7197
▁screenwriter	-11.7198
▁Mom	-11.7198
▁washing	-11.7198
▁lined	-11.72
ffin	-11.72
▁meters	-11.72
▁spotlight	-11.7204
local	-11.7205
▁neighborhoods	-11.7206
▁downward	-11.7207
▁responding	-11.7211
▁slice	-11.7213
▁Gabriel	-11.7215
▁1929	-11.7215
▁donâ	-11.7215
▁commenting	-11.7215
▁Walmart	-11.7216
▁6-	-11.7216
▁Rec	-11.7218
▁whale	-11.7218
dimensional	-11.7221
▁embraced	-11.7221
▁Doug	-11.7223
▁sect	-11.7227
▁Mets	-11.7227
▁ankle	-11.723
▁admits	-11.723
▁liver	-11.7231
dging	-11.7231
▁fearful	-11.7233
▁backward	-11.7234
^	-11.7235
▁garage	-11.7237
▁rip	-11.7239
▁maps	-11.7239
▁entities	-11.724
▁senators	-11.724
▁favorable	-11.7241
quin	-11.7242
PG	-11.7243
▁heating	-11.7245
▁NEWS	-11.7246
▁Potter	-11.7247
▁Chuck	-11.7247
▁consequently	-11.7249
▁concealed	-11.725
▁Agreement	-11.7251
▁responses	-11.7253
▁Vic	-11.7253
▁confirmation	-11.7253
▁Shanghai	-11.7254
cock	-11.7256
▁capita	-11.7257
▁prohibited	-11.7257
FL	-11.7257
▁invade	-11.7258
cid	-11.7259
▁novelist	-11.7259
▁sends	-11.726
usa	-11.7261
lant	-11.7262
▁Trudeau	-11.7263
elling	-11.7264
▁geo	-11.7265
▁draws	-11.7267
▁explosive	-11.7269
▁flowing	-11.7271
largest	-11.7273
aunt	-11.7275
sell	-11.7275
▁persuaded	-11.7275
▁certainty	-11.7277
▁interpreted	-11.7278
▁thoughtful	-11.7281
profile	-11.7281
CP	-11.7282
▁Dance	-11.7282
break	-11.7283
▁20,000	-11.7284
▁stunt	-11.7286
▁swap	-11.7286
▁Modi	-11.7286
▁leisure	-11.7287
▁availability	-11.7287
▁casino	-11.7287
▁Print	-11.7287
▁vet	-11.7288
▁ko	-11.7289
▁Ang	-11.7289
▁dresses	-11.729
▁norm	-11.7291
zan	-11.7292
mount	-11.7296
▁1935	-11.7297
ANT	-11.7299
▁lightning	-11.73
▁toys	-11.7301
▁junk	-11.7301
ional	-11.7302
loy	-11.7302
▁surf	-11.7305
▁1919	-11.7305
▁damaging	-11.7306
CR	-11.7309
▁elbow	-11.7311
EX	-11.7311
dh	-11.7312
source	-11.7313
▁streams	-11.7313
▁Finnish	-11.7316
▁theorem	-11.7318
▁disastrous	-11.732
▁Voice	-11.7321
▁suite	-11.7324
▁911	-11.7325
▁Kil	-11.7326
although	-11.7327
▁casual	-11.7327
cate	-11.7329
▁sponsored	-11.7329
▁Heritage	-11.7329
▁optimistic	-11.7329
▁assurance	-11.7329
▁Colombia	-11.7329
▁whisper	-11.7335
▁kicking	-11.7335
▁Tampa	-11.7335
▁sums	-11.7336
▁5,000	-11.7336
▁endorsement	-11.7337
hm	-11.734
▁perfection	-11.734
▁lending	-11.7344
instance	-11.7347
▁Fal	-11.7347
▁LGBT	-11.7348
▁Fourth	-11.7357
▁spectacular	-11.7358
RR	-11.7359
pra	-11.736
▁Berg	-11.736
▁laser	-11.7362
▁Campaign	-11.7362
▁Direct	-11.7363
Red	-11.7365
▁brexit	-11.7367
▁freeze	-11.7369
eyed	-11.737
▁eliminated	-11.7371
liter	-11.7371
▁exc	-11.7371
▁cite	-11.7372
▁WHO	-11.7372
▁persistent	-11.7373
▁gar	-11.7373
ibly	-11.7376
▁revelation	-11.7376
Dis	-11.7376
▁Laden	-11.738
▁elementary	-11.7381
Che	-11.7381
▁OMICRON	-11.7382
▁goat	-11.7383
2015	-11.7384
know	-11.7384
▁slope	-11.7385
ingham	-11.7386
ARD	-11.7386
▁awesome	-11.7386
▁achievements	-11.7389
gov	-11.7391
▁McCarthy	-11.7391
▁failures	-11.7392
▁shortage	-11.7394
UC	-11.7395
▁receipt	-11.7396
rig	-11.7398
ulated	-11.7398
▁Gates	-11.7401
craft	-11.7401
stat	-11.7403
▁PI	-11.7403
▁diagnosis	-11.741
▁harbour	-11.741
▁shooter	-11.741
▁neighbouring	-11.7414
AY	-11.7414
vey	-11.7414
▁automobile	-11.7415
Su	-11.7415
iro	-11.7416
▁filming	-11.7416
▁Cas	-11.7418
▁vivid	-11.7421
▁Base	-11.7422
site	-11.7424
▁Pol	-11.7425
▁greedy	-11.7429
taking	-11.743
King	-11.743
END	-11.7431
SL	-11.7433
▁cooked	-11.7434
hum	-11.7434
exp	-11.7436
▁glow	-11.7437
▁cu	-11.7437
especially	-11.7438
▁dwelling	-11.7438
OD	-11.7443
ease	-11.7445
▁frustrated	-11.7447
▁blowing	-11.7447
▁Cincinnati	-11.7448
▁correspondence	-11.7449
▁Spa	-11.7449
CT	-11.7449
▁1934	-11.7451
Cor	-11.7452
▁weary	-11.7453
▁jam	-11.7456
fore	-11.7456
▁Anton	-11.7457
▁Jam	-11.7458
▁1-	-11.7462
▁mandatory	-11.7463
▁Find	-11.7463
nom	-11.7468
▁affiliate	-11.7468
▁Forbes	-11.7469
izz	-11.7471
▁velocity	-11.7472
▁relate	-11.7473
▁Movie	-11.7473
flow	-11.7473
▁viable	-11.7475
eux	-11.7475
▁1910	-11.7476
▁solved	-11.7477
▁Eddie	-11.7478
▁releases	-11.7478
▁chant	-11.7479
▁Contact	-11.7481
phan	-11.7481
enti	-11.7481
▁Naval	-11.7482
▁Sterling	-11.7482
▁rig	-11.7483
DF	-11.7484
▁Devil	-11.7485
▁thorough	-11.7486
▁beneficial	-11.7487
▁slogan	-11.7487
▁productivity	-11.7488
▁complexity	-11.7488
▁Clay	-11.749
using	-11.7491
Ti	-11.7492
▁Emily	-11.7492
▁decides	-11.7494
▁explicitly	-11.7495
▁tolerance	-11.7497
▁perceive	-11.7497
▁Weekly	-11.75
▁lightly	-11.75
▁sunk	-11.7501
▁bullying	-11.7501
▁forehead	-11.7502
▁regulate	-11.7502
▁infantry	-11.7504
Time	-11.7506
would	-11.7507
▁bridges	-11.7508
▁bend	-11.7508
▁finances	-11.7509
▁disputes	-11.7511
.........	-11.7515
▁fleeing	-11.7516
rog	-11.7516
▁Annual	-11.7516
:"	-11.7519
▁needle	-11.7519
dress	-11.752
▁comparable	-11.7521
▁Cairo	-11.7521
▁bind	-11.7522
▁towers	-11.7524
▁Rain	-11.7524
▁irre	-11.7524
▁slender	-11.7525
▁Julie	-11.7526
Up	-11.7526
▁Palestinians	-11.7529
▁fathers	-11.753
▁Ambassador	-11.753
▁releasing	-11.753
▁bottles	-11.7533
▁proclaimed	-11.7534
▁dread	-11.7535
▁circular	-11.7535
▁resumed	-11.7535
▁Ned	-11.7539
eration	-11.7539
▁compliance	-11.754
▁unjust	-11.754
▁Support	-11.754
NI	-11.754
▁Pad	-11.7542
▁lighter	-11.7542
▁prohibit	-11.7543
▁websites	-11.7543
▁thereof	-11.7544
▁vicious	-11.7545
▁mut	-11.7545
▁Pic	-11.7548
▁Dad	-11.7548
▁scan	-11.7548
▁witch	-11.7548
▁Sadly	-11.755
▁reviewed	-11.755
/1	-11.7551
▁Agriculture	-11.7554
▁upward	-11.7556
▁Computer	-11.7559
▁Jew	-11.756
CS	-11.7561
▁Str	-11.7561
▁deleted	-11.7563
▁bloom	-11.7563
David	-11.7564
▁clinic	-11.7564
▁Af	-11.7566
▁occurring	-11.7566
▁guided	-11.7567
▁pistol	-11.7569
wife	-11.757
▁electronics	-11.7571
mur	-11.7571
▁colored	-11.7571
TU	-11.7572
▁Arctic	-11.7574
▁trophy	-11.7575
▁rebounds	-11.7575
▁economically	-11.7576
▁scout	-11.7579
▁scream	-11.7579
;"	-11.758
▁Pot	-11.758
▁wipe	-11.7581
▁Milwaukee	-11.7583
▁flank	-11.7584
▁puppet	-11.7584
▁casualties	-11.7584
▁migrant	-11.7584
von	-11.7586
▁exceptions	-11.759
▁Few	-11.759
group	-11.7591
▁saddle	-11.7592
▁crushed	-11.7593
▁maxitems	-11.7593
▁Clement	-11.7596
▁fourteen	-11.7597
hang	-11.7599
▁wears	-11.7599
▁2002,	-11.7599
▁harbor	-11.7601
third	-11.7602
▁sticking	-11.7603
▁Really	-11.7604
▁overtime	-11.7604
▁Abe	-11.7608
▁reactor	-11.7609
▁Adrian	-11.7609
▁rigid	-11.7609
▁nuts	-11.761
▁rightly	-11.7611
▁identification	-11.7613
▁FREE	-11.7613
▁democrats	-11.7616
wheel	-11.7617
▁Beyond	-11.7617
▁doll	-11.7617
▁unpleasant	-11.7618
▁BJP	-11.7618
▁Tiger	-11.7622
▁verbal	-11.7622
▁Tigers	-11.7623
ière	-11.7623
▁morph	-11.7624
▁accounted	-11.7626
▁Galaxy	-11.7627
▁Bennett	-11.7628
▁Herbert	-11.763
▁cute	-11.7631
degree	-11.7632
▁discourse	-11.7633
▁HD	-11.7634
▁courses	-11.7635
Because	-11.7637
▁sworn	-11.7638
▁capitalist	-11.7638
▁Tele	-11.7641
▁pedestrian	-11.7642
▁weighed	-11.7642
▁segments	-11.7643
▁$25	-11.7643
▁mole	-11.7644
▁recommendation	-11.7644
▁triggered	-11.7647
▁concentrate	-11.7648
600	-11.7649
nine	-11.7649
▁elevation	-11.7652
amine	-11.7652
gor	-11.7653
▁Bag	-11.7654
▁wo	-11.7656
▁dialect	-11.7656
ales	-11.7656
▁assignment	-11.7657
▁IOTA	-11.7657
▁zones	-11.7657
▁respects	-11.7657
rob	-11.7657
quest	-11.7658
▁introducing	-11.7662
▁Faith	-11.7662
▁leagues	-11.7662
▁wan	-11.7664
iko	-11.7666
–17	-11.7668
▁archive	-11.767
▁debts	-11.767
▁eh	-11.767
▁Grove	-11.7671
▁Institution	-11.7672
▁sailed	-11.7672
asi	-11.7673
▁flags	-11.7677
▁Step	-11.7679
▁Paradise	-11.7679
▁shaking	-11.7682
▁constitute	-11.7682
▁Telegraph	-11.7683
▁Micro	-11.7683
tag	-11.7684
▁layers	-11.7684
▁Greater	-11.7685
▁talents	-11.7685
▁diabetes	-11.7686
▁width	-11.7686
tian	-11.7687
▁conform	-11.7687
▁discharge	-11.7688
iser	-11.7688
▁midfielder	-11.7689
▁gambling	-11.7691
▁lifting	-11.7692
▁Neo	-11.7693
▁Author	-11.7694
▁nail	-11.7695
▁bloke	-11.7696
▁infected	-11.7696
▁Pedro	-11.7696
▁diplomat	-11.7697
▁prophet	-11.7697
▁hop	-11.7699
▁moderation	-11.7701
▁Palmer	-11.7702
▁memoir	-11.7702
lov	-11.7703
ink	-11.7704
▁lamb	-11.7705
BER	-11.7706
Will	-11.7707
▁honored	-11.7708
▁Shop	-11.771
oke	-11.7712
▁horizontal	-11.7712
▁magnet	-11.7714
▁catching	-11.7714
▁altar	-11.7714
▁Maha	-11.7716
▁Falls	-11.7717
Big	-11.7717
▁Ashley	-11.7718
▁Personal	-11.7718
▁perpetual	-11.772
▁strategist	-11.772
▁Dame	-11.7722
▁EC	-11.7723
▁arc	-11.7723
spot	-11.7725
▁cannabis	-11.7725
▁audit	-11.7728
▁Hamas	-11.7729
▁prevalent	-11.773
▁EDT	-11.7731
▁float	-11.7732
▁trademark	-11.7733
jay	-11.7733
▁interim	-11.7734
▁Canal	-11.7735
▁Renaissance	-11.7735
▁behold	-11.7738
idae	-11.7738
▁Kat	-11.7739
kle	-11.7739
▁Armenian	-11.7739
▁abundance	-11.774
▁chorus	-11.774
▁lovers	-11.774
▁Rush	-11.774
-13	-11.7744
▁troubles	-11.7747
▁Sounds	-11.7747
▁80%	-11.7748
▁throws	-11.775
▁sequel	-11.775
▁nu	-11.7751
Ni	-11.7755
hil	-11.776
▁Rou	-11.776
▁delicious	-11.776
▁Near	-11.776
▁Funny	-11.7761
▁incumbent	-11.7761
▁Against	-11.7762
▁Ask	-11.7763
▁convincing	-11.7765
▁snake	-11.7766
shed	-11.7768
▁THEY	-11.777
powered	-11.777
▁enhanced	-11.7773
Com	-11.7775
▁thrive	-11.7775
▁teammates	-11.7775
service	-11.7775
▁columnist	-11.7776
▁WR	-11.7776
,000,000	-11.7779
English	-11.7779
▁Sanchez	-11.778
iving	-11.778
▁purse	-11.7782
▁fro	-11.7787
▁Insurance	-11.779
▁comparing	-11.779
▁sober	-11.7792
▁Below	-11.7794
▁magical	-11.7798
▁Joshua	-11.78
▁Dragon	-11.7801
▁breakdown	-11.7803
kha	-11.7804
▁heated	-11.7805
▁portions	-11.7807
rai	-11.7807
zar	-11.7809
▁eclipse	-11.7809
▁Opera	-11.781
allow	-11.7812
borough	-11.7813
PE	-11.7815
▁tweets	-11.7817
▁lust	-11.7817
store	-11.7819
▁Dynasty	-11.7819
▁DI	-11.782
▁Baseball	-11.782
uba	-11.7821
7,000	-11.7823
iller	-11.7824
▁Truth	-11.7826
▁sponsor	-11.7827
inate	-11.7827
▁flies	-11.7828
▁Lyon	-11.7828
▁Tommy	-11.7829
▁annoying	-11.783
▁hood	-11.7831
▁Ivan	-11.7833
▁stack	-11.7833
ulator	-11.7834
▁illustrated	-11.7835
▁figured	-11.7836
▁1.2	-11.7837
▁Wor	-11.7837
▁tv	-11.7841
▁07	-11.7843
▁diamond	-11.7843
oro	-11.7843
flower	-11.7843
▁Sat	-11.7844
▁experiencing	-11.7844
▁pretending	-11.7845
▁Gam	-11.7846
▁outcomes	-11.7847
▁cruelty	-11.7847
▁imprisoned	-11.7848
▁SI	-11.7849
Vo	-11.7849
▁molecules	-11.7849
▁Resources	-11.7852
▁Flo	-11.7852
▁Sm	-11.7852
▁quest	-11.7853
▁GR	-11.7854
▁Vas	-11.7854
▁wax	-11.7854
▁incompetent	-11.7854
▁maiden	-11.7856
Every	-11.7857
▁rat	-11.7858
▁Companies	-11.7859
▁appreciation	-11.7859
call	-11.786
▁monkey	-11.786
▁Ridge	-11.786
▁Kel	-11.7862
▁lung	-11.7862
▁outward	-11.7862
▁lest	-11.7864
▁detected	-11.7865
mma	-11.7868
▁appealed	-11.7869
▁Living	-11.7869
▁Zimbabwe	-11.7869
▁occurrence	-11.7869
▁forbidden	-11.787
▁Pas	-11.787
▁attitudes	-11.7871
▁aired	-11.7871
▁1916	-11.7871
▁inability	-11.7872
▁Multi	-11.7872
▁slightest	-11.7873
▁voluntary	-11.7874
▁Scripture	-11.7874
▁highlighted	-11.7875
host	-11.7877
▁MAR	-11.7878
Miss	-11.7879
▁maintains	-11.7879
ential	-11.788
ships	-11.788
▁sinking	-11.7883
▁finite	-11.7884
▁stall	-11.7884
family	-11.7884
▁isolation	-11.7884
▁Vale	-11.7891
PER	-11.7891
_--	-11.7893
▁tract	-11.7894
▁showcase	-11.7895
business	-11.7895
girl	-11.7896
▁constituency	-11.7899
both	-11.79
▁specified	-11.79
▁Pier	-11.79
▁Temp	-11.7902
▁disturbing	-11.7902
▁cage	-11.7902
▁16-	-11.7904
▁Panama	-11.7904
ulating	-11.7904
GA	-11.7904
▁Poly	-11.7905
Pri	-11.7905
▁Ahmed	-11.7905
▁HAVE	-11.7905
▁beans	-11.7906
▁flooded	-11.7906
▁Wenger	-11.7909
▁overhaul	-11.7909
▁medication	-11.791
▁Engineering	-11.7911
▁inspector	-11.7914
issa	-11.7915
control	-11.7915
▁pairs	-11.7916
quet	-11.7917
▁Java	-11.7918
▁sho	-11.7919
▁Musk	-11.7921
▁noun	-11.7921
▁viral	-11.7921
▁irony	-11.7924
shop	-11.7924
▁Isis	-11.7924
▁burial	-11.7925
▁submission	-11.7925
▁Darwin	-11.7927
▁campaigning	-11.7931
▁sells	-11.7931
▁territorial	-11.7931
Tra	-11.7932
▁mentor	-11.7933
poli	-11.7934
▁merchants	-11.7936
para	-11.7938
▁graphic	-11.7941
▁dried	-11.7942
▁£3	-11.7942
nos	-11.7946
▁Tap	-11.7946
▁arena	-11.7946
▁recruit	-11.7946
▁Cox	-11.7946
tina	-11.7948
▁Satan	-11.7948
▁coordinator	-11.795
▁disregard	-11.795
▁}	-11.795
here	-11.7952
▁bribe	-11.7953
:30	-11.7955
▁magazines	-11.7956
▁atoms	-11.7956
▁suck	-11.7958
▁Self	-11.796
▁imperfect	-11.796
awn	-11.7962
FR	-11.7962
▁Pea	-11.7963
▁regain	-11.7965
▁mechanics	-11.7967
▁Hopkins	-11.797
▁Vermont	-11.797
San	-11.7971
▁presenting	-11.7972
▁Students	-11.7972
▁Currently	-11.7975
http	-11.7975
▁arrange	-11.7975
−	-11.7975
▁1928	-11.7976
radi	-11.7976
ppy	-11.7978
bid	-11.7978
▁Job	-11.7979
▁Sec	-11.798
▁fragment	-11.7981
▁1890	-11.7981
▁ramp	-11.7983
▁barriers	-11.7985
▁visitor	-11.7985
▁Calvin	-11.7985
▁Cent	-11.7986
▁Photos	-11.7986
graph	-11.7989
▁embarrassment	-11.7991
▁regulated	-11.7993
▁burnt	-11.7996
▁Kir	-11.7996
▁1/2	-11.7996
▁worm	-11.7997
polis	-11.7998
▁rust	-11.8001
Hi	-11.8002
bow	-11.8003
▁switched	-11.8004
▁southwest	-11.8008
▁computing	-11.801
▁transgender	-11.801
▁rulers	-11.8011
▁laboratory	-11.8011
▁WHAT	-11.8011
pho	-11.8012
▁25-	-11.8012
▁Qaeda	-11.8015
dine	-11.8016
join	-11.8017
shirt	-11.8017
▁transported	-11.8018
▁treatments	-11.8022
▁Catholics	-11.8023
▁FM	-11.8023
▁conquer	-11.8025
lines	-11.8028
▁sleeve	-11.8031
▁angels	-11.8031
kg	-11.8035
▁wildlife	-11.8037
▁Alt	-11.8038
▁Congo	-11.8039
▁Que	-11.8039
▁Broad	-11.804
▁playwright	-11.8041
▁IMF	-11.8041
[...]
